<unk>	0
<s>	0
</s>	0
▁	-2.5516
▁(	-2.84331
)	-2.85606
.	-2.96824
-	-3.75957
B	-3.93237
Y	-3.93691
org	-3.94019
France	-3.94111
:	-3.94116
▁Attr	-3.9418
ibution	-3.94191
&	-3.94192
tatoeba	-3.94193
▁2.0	-3.94193
CC	-3.95557
'	-4.11376
C	-4.11697
K	-4.30777
celtic	-4.60784
sacred	-4.60787
s	-4.72651
▁I	-4.95149
t	-5.32271
▁you	-5.39731
▁to	-5.43381
▁a	-5.47247
▁de	-5.48635
A	-5.5381
▁Je	-5.56286
?	-5.63808
iji	-5.69447
▁Tom	-5.69451
▁pas	-5.74328
▁the	-5.74961
▁?	-5.85207
▁que	-5.91745
,	-5.96853
à	-6.03173
▁ne	-6.15608
▁me	-6.16622
▁la	-6.2114
▁le	-6.24484
re	-6.28101
▁Il	-6.3143
▁is	-6.32781
ai	-6.3536
e	-6.42674
est	-6.45086
▁n	-6.46238
n	-6.48263
▁l	-6.48357
▁J	-6.51017
▁vous	-6.54105
▁est	-6.54783
m	-6.55517
▁un	-6.56034
M	-6.57573
▁that	-6.57688
a	-6.5842
▁of	-6.64203
▁d	-6.64839
▁in	-6.65772
d	-6.68303
▁You	-6.68979
▁He	-6.79888
il	-6.81385
▁was	-6.83106
2	-6.83152
▁it	-6.85766
▁ce	-6.87474
▁have	-6.88585
▁en	-6.8989
vous	-6.92208
▁do	-6.9305
▁une	-6.94676
tu	-6.96081
▁for	-6.96747
Spa	-6.99574
mster	-7.00192
H	-7.00415
0	-7.03613
▁don	-7.04286
▁this	-7.04495
o	-7.05177
▁be	-7.05411
▁suis	-7.07114
▁pour	-7.08371
▁je	-7.09153
ybrid	-7.10379
y	-7.10575
ce	-7.11116
▁not	-7.11573
▁your	-7.1287
7	-7.14049
1	-7.14997
▁We	-7.15296
6	-7.15542
r	-7.17754
8	-7.17895
▁want	-7.1899
▁can	-7.1928
ed	-7.19299
26	-7.19857
▁les	-7.19956
27	-7.20065
▁Elle	-7.20263
30	-7.21823
▁The	-7.22931
▁faire	-7.23556
3	-7.24035
▁my	-7.25173
▁did	-7.26341
▁Nou	-7.27241
14	-7.27408
63	-7.29022
9	-7.29155
▁qu	-7.29801
33	-7.30089
96	-7.31825
36	-7.3242
67	-7.32425
80	-7.32557
17	-7.32804
31	-7.32942
▁know	-7.33054
25	-7.34076
39	-7.34467
06	-7.35697
▁like	-7.35954
46	-7.36383
▁on	-7.3667
▁She	-7.36857
65	-7.36973
29	-7.3727
▁tu	-7.37526
_	-7.37577
47	-7.37577
38	-7.3769
▁are	-7.37699
19	-7.37737
▁Tu	-7.37887
43	-7.38286
37	-7.38359
32	-7.38369
24	-7.38422
▁Vous	-7.38769
41	-7.38895
75	-7.39064
28	-7.39367
11	-7.39576
48	-7.40271
35	-7.40271
68	-7.40336
20	-7.40403
▁!	-7.40473
05	-7.40565
16	-7.40722
77	-7.4081
12	-7.41271
01	-7.41273
5	-7.41307
34	-7.41356
66	-7.41576
40	-7.4186
▁It	-7.41884
55	-7.41959
10	-7.42065
é	-7.42107
04	-7.42283
▁with	-7.42434
58	-7.4245
21	-7.42522
95	-7.42545
23	-7.42579
ing	-7.42631
86	-7.42841
76	-7.42867
69	-7.43201
15	-7.43253
18	-7.43641
03	-7.43763
93	-7.43768
4	-7.4392
13	-7.43952
92	-7.43996
73	-7.44196
64	-7.44537
02	-7.44767
83	-7.452
91	-7.45351
08	-7.46168
49	-7.46204
94	-7.4626
99	-7.46269
44	-7.4627
es	-7.46568
22	-7.46614
07	-7.46867
ll	-7.46881
72	-7.46915
90	-7.47041
▁dans	-7.47093
ve	-7.47147
82	-7.47195
74	-7.47242
00	-7.47288
57	-7.48222
98	-7.48261
97	-7.4845
51	-7.48896
78	-7.49048
▁nous	-7.49181
50	-7.49254
56	-7.49291
45	-7.49491
87	-7.49631
59	-7.49732
▁plus	-7.49762
81	-7.49863
61	-7.49995
85	-7.50409
70	-7.50574
42	-7.50726
89	-7.50796
54	-7.50815
53	-7.51031
▁m	-7.51316
09	-7.51855
71	-7.52057
79	-7.52452
60	-7.52535
52	-7.52788
62	-7.5376
84	-7.54949
88	-7.55228
z	-7.58125
▁what	-7.59299
▁des	-7.6086
▁all	-7.6137
▁as	-7.61715
▁te	-7.62398
▁What	-7.62865
▁ça	-7.63475
f	-7.63946
▁du	-7.65181
er	-7.65318
▁fait	-7.6539
▁go	-7.654
▁at	-7.6558
▁se	-7.66407
en	-7.66754
▁think	-7.6718
▁he	-7.67807
▁veux	-7.68001
▁au	-7.69422
▁his	-7.71185
▁avec	-7.72674
▁qui	-7.73165
▁him	-7.73466
▁Mary	-7.76609
▁Do	-7.76774
GB	-7.81186
▁They	-7.829
ni	-7.84968
▁and	-7.85072
▁about	-7.85527
▁time	-7.85752
▁Le	-7.86835
p	-7.87737
▁tout	-7.88469
3)	-7.89931
▁very	-7.91358
▁sont	-7.91935
▁here	-7.9197
ra	-7.93375
▁et	-7.93585
▁son	-7.94048
▁mon	-7.95845
▁were	-7.96518
▁j	-7.96701
▁si	-7.96801
▁This	-7.96887
▁we	-7.96949
▁That	-7.97944
▁sur	-7.99066
el	-8.0125
▁had	-8.01566
▁très	-8.01908
as	-8.0227
▁How	-8.02638
c	-8.02931
un	-8.03569
▁Ce	-8.03804
l	-8.04778
ez	-8.05157
▁get	-8.05649
▁out	-8.05909
▁La	-8.06458
▁her	-8.0652
u	-8.0671
▁up	-8.07488
▁so	-8.07708
▁c	-8.07713
▁temps	-8.08154
▁one	-8.08249
▁vot	-8.08329
▁Don	-8.0859
▁dit	-8.08596
▁has	-8.0879
b	-8.09863
▁Ne	-8.10388
Scorpion	-8.10605
venin	-8.10646
▁être	-8.1095
▁pense	-8.11792
▁lui	-8.11904
▁going	-8.12411
k	-8.13699
▁moi	-8.137
N	-8.13809
▁will	-8.1431
▁Are	-8.14529
▁été	-8.15181
T	-8.15499
▁should	-8.15868
ly	-8.15998
▁peux	-8.16166
us	-8.17529
▁chose	-8.17779
▁just	-8.17999
mfe	-8.18365
14)	-8.18807
▁par	-8.18984
sy	-8.19329
▁êtes	-8.1966
▁sais	-8.20013
▁était	-8.20028
▁need	-8.21809
cette	-8.21987
x	-8.2229
on	-8.2236
▁good	-8.22948
sko	-8.23055
▁Les	-8.23414
g	-8.23771
je	-8.25554
▁ici	-8.25952
▁y	-8.26355
▁no	-8.26444
▁an	-8.26598
▁jamais	-8.26641
ur	-8.2756
S	-8.27837
▁ma	-8.28003
nt	-8.2865
is	-8.29175
mana	-8.29701
▁would	-8.31167
le	-8.31313
▁see	-8.325
G	-8.32507
▁cela	-8.32758
▁vraiment	-8.33278
▁My	-8.35076
▁could	-8.35231
▁really	-8.35332
▁help	-8.35385
▁tell	-8.3546
▁Pourquoi	-8.35618
be	-8.35771
▁there	-8.35886
▁from	-8.35958
▁bien	-8.36686
▁Why	-8.36835
▁train	-8.37086
te	-8.37495
▁by	-8.38745
▁dire	-8.39155
ment	-8.39415
moi	-8.39747
U	-8.4131
Mic	-8.41613
▁us	-8.41665
▁#224	-8.42145
al	-8.42365
smith	-8.42792
Ye	-8.43057
▁sa	-8.43166
▁does	-8.43578
▁quelque	-8.43899
▁toi	-8.43997
D	-8.44137
mex	-8.45173
darin	-8.45267
▁been	-8.4589
▁L	-8.46531
▁ton	-8.47234
ons	-8.47285
▁besoin	-8.47532
O	-8.47912
▁come	-8.47974
v	-8.48429
▁car	-8.49525
F	-8.49863
▁more	-8.50019
elle	-8.50713
▁never	-8.51075
in	-8.51987
▁now	-8.52231
▁There	-8.53834
tras	-8.53968
RA	-8.54381
▁#201	-8.55015
▁beaucoup	-8.55416
aime	-8.56012
▁es	-8.56684
▁got	-8.56748
V	-8.57778
▁#204	-8.58066
▁sommes	-8.58885
Phoenix	-8.58899
▁tous	-8.58907
ait	-8.591
▁if	-8.59387
▁but	-8.60489
▁too	-8.60728
▁avons	-8.60825
▁something	-8.61311
▁Commen	-8.61318
▁Est	-8.61818
▁#364	-8.6182
▁parler	-8.62103
▁than	-8.62299
▁much	-8.62318
▁avez	-8.62376
vo	-8.62404
▁va	-8.62767
i	-8.62875
était	-8.62921
▁Can	-8.6314
▁work	-8.65385
▁maison	-8.66076
▁#373	-8.6608
Sour	-8.66983
▁O	-8.67452
▁peut	-8.67584
▁take	-8.68008
▁ont	-8.68177
▁right	-8.68446
▁make	-8.68685
▁aller	-8.6878
▁Let	-8.68957
être	-8.69159
▁peu	-8.70303
▁là	-8.70811
q	-8.71748
▁how	-8.7181
▁toujours	-8.72073
▁trop	-8.72425
▁rien	-8.72498
FS	-8.72594
!	-8.72846
▁On	-8.72951
▁voir	-8.7355
▁bon	-8.73667
ant	-8.7391
▁home	-8.73973
tes	-8.74385
▁deux	-8.74876
▁Did	-8.7498
▁some	-8.75224
argent	-8.75333
▁comme	-8.75803
▁money	-8.75983
ro	-8.75985
ent	-8.76139
air	-8.76444
▁thought	-8.76568
▁when	-8.7717
▁am	-8.77241
▁ta	-8.77243
▁encore	-8.77443
▁they	-8.77957
▁back	-8.78703
▁quoi	-8.78777
▁last	-8.78816
▁who	-8.79067
▁any	-8.79068
ch	-8.79087
▁#228	-8.79299
▁#382	-8.79524
▁Qu	-8.79677
▁she	-8.79996
dii	-8.80163
or	-8.80334
▁talk	-8.80598
▁long	-8.80618
▁monde	-8.8075
étais	-8.80853
▁sure	-8.80998
▁#449	-8.8165
▁say	-8.81669
▁#78	-8.82259
▁voiture	-8.82265
▁anything	-8.82351
▁lot	-8.82841
▁#195	-8.82926
ter	-8.83283
▁#45	-8.83744
▁day	-8.84194
▁No	-8.84442
▁told	-8.84692
▁mais	-8.84757
w	-8.8532
able	-8.85734
▁Boston	-8.85961
se	-8.85971
▁soit	-8.86635
it	-8.86658
▁#95	-8.87479
▁faut	-8.87652
▁#401	-8.87738
▁#221	-8.8884
▁#225	-8.893
▁avoir	-8.89683
▁Please	-8.90131
ci	-8.90203
▁Si	-8.90295
une	-8.9041
▁Tout	-8.90506
▁must	-8.90719
▁travail	-8.90808
▁vais	-8.90835
▁#202	-8.91044
▁way	-8.91417
▁Where	-8.91476
▁Mon	-8.9155
hort	-8.92173
▁dois	-8.92197
lga	-8.92348
▁il	-8.92393
▁made	-8.92458
▁love	-8.92464
aimerais	-8.92674
▁#239	-8.92683
ation	-8.92963
▁As	-8.93088
▁vu	-8.93134
▁fois	-8.93329
▁Who	-8.93469
US	-8.93485
ri	-8.93502
▁eu	-8.93672
vox	-8.93739
dei	-8.93807
▁dé	-8.93911
hui	-8.94113
1596	-8.9468
che	-8.94748
rene	-8.95032
▁#183	-8.9509
▁said	-8.95537
piti	-8.96156
Alan	-8.96689
▁#238	-8.96708
▁feel	-8.96718
ù	-8.97317
▁#118	-8.97604
eux	-8.98008
tole	-8.98296
tna	-8.98405
ne	-8.98885
ette	-8.98896
▁aussi	-8.98919
▁Que	-8.98974
▁avait	-8.98975
▁#109	-8.98992
▁#102	-8.99182
▁house	-8.994
▁eat	-8.99488
▁believe	-8.99583
Renais	-8.99951
▁people	-9.00044
Feu	-9.00136
▁#197	-9.00633
▁went	-9.00765
Ro	-9.01058
▁part	-9.01104
▁mes	-9.01143
▁still	-9.01535
▁look	-9.01537
avais	-9.02118
▁S	-9.02139
li	-9.02909
▁#289	-9.02943
▁happy	-9.03133
▁today	-9.03228
▁off	-9.03415
▁#81	-9.03797
▁doing	-9.0391
no	-9.04135
▁#227	-9.0419
▁always	-9.04473
▁ceci	-9.04504
▁Is	-9.04523
▁ses	-9.04568
▁French	-9.0457
▁maintenant	-9.0457
▁better	-9.04667
que	-9.04668
ge	-9.0489
▁porte	-9.0513
▁won	-9.0515
▁où	-9.05161
▁#359	-9.05461
▁#146	-9.05579
▁juste	-9.05965
▁P	-9.05986
▁français	-9.06028
ils	-9.06048
▁only	-9.06189
▁#13	-9.06878
ir	-9.06906
El	-9.06911
pp	-9.07162
▁room	-9.07533
▁night	-9.07632
▁job	-9.07806
▁book	-9.079
under	-9.08219
▁give	-9.09164
ux	-9.09199
▁dis	-9.09255
▁again	-9.09298
▁leave	-9.09414
▁Have	-9.09424
la	-9.09629
▁over	-9.09823
▁chez	-9.10336
▁#203	-9.10615
▁before	-9.10635
▁Ma	-9.10698
▁#564	-9.10738
▁#237	-9.109
▁Qui	-9.11118
▁#580	-9.11564
▁même	-9.11568
▁aujourd	-9.11745
vi	-9.12062
▁parents	-9.12186
▁#79	-9.12311
▁many	-9.12579
▁moment	-9.12708
▁#189	-9.12756
▁#74	-9.12794
▁personne	-9.12976
▁livre	-9.1372
▁school	-9.14077
at	-9.1412
▁question	-9.14577
▁little	-9.15371
▁seul	-9.1552
▁them	-9.15692
age	-9.16043
▁#236	-9.16142
dad	-9.16287
nous	-9.16528
▁déjà	-9.16656
▁new	-9.16821
▁#231	-9.1687
an	-9.16907
▁down	-9.17093
▁#209	-9.17102
▁mal	-9.17146
▁our	-9.17473
▁man	-9.17473
▁old	-9.17594
gill	-9.17636
toad	-9.17653
▁#145	-9.1771
▁pensais	-9.17863
Dream	-9.18192
▁#168	-9.19528
▁#687	-9.19805
▁#114	-9.20009
▁#62	-9.20108
ée	-9.20134
▁père	-9.20395
▁Avez	-9.20428
▁prendre	-9.20471
▁#220	-9.20928
▁N	-9.20948
di	-9.20948
▁hier	-9.21299
▁wanted	-9.21337
bla	-9.21433
▁bonne	-9.21496
▁#185	-9.21501
▁assez	-9.21584
h	-9.21686
▁#565	-9.21705
▁where	-9.21833
Scott	-9.21909
▁#226	-9.22139
ion	-9.22171
▁#165	-9.2218
▁Personne	-9.22484
▁mieux	-9.226
▁hard	-9.22671
▁well	-9.22767
iko	-9.22833
▁#192	-9.22947
▁fais	-9.23364
▁or	-9.23369
▁plan	-9.23573
école	-9.23879
st	-9.24183
▁#199	-9.24348
▁father	-9.24348
▁#218	-9.24525
▁#190	-9.24583
▁alone	-9.24585
▁understand	-9.24701
▁grand	-9.24903
▁tomorrow	-9.24938
▁happened	-9.25219
▁#196	-9.25343
▁trois	-9.25531
▁left	-9.25536
ifre	-9.25776
Toy	-9.2589
ais	-9.26021
ma	-9.26086
▁problème	-9.26198
nop	-9.26211
▁#193	-9.26241
▁find	-9.27002
▁#10	-9.27098
▁#112	-9.2721
▁#115	-9.27574
ic	-9.27942
▁g	-9.27944
iez	-9.2798
avez	-9.28026
▁demain	-9.28183
arrive	-9.28604
▁#147	-9.28673
▁enough	-9.28673
▁toutes	-9.28728
▁fut	-9.29409
me	-9.29464
▁#486	-9.29607
▁asked	-9.29608
ont	-9.29761
▁vie	-9.29782
domin	-9.2979
▁yesterday	-9.29908
▁put	-9.29922
▁bus	-9.30012
▁manger	-9.30075
mama	-9.30092
▁week	-9.30148
▁#111	-9.30167
▁quand	-9.30192
rchi	-9.30377
▁sans	-9.30411
ombien	-9.30749
bald	-9.30786
▁devrais	-9.30909
▁Quel	-9.31422
▁#37	-9.31465
▁three	-9.31537
▁place	-9.31741
▁plaît	-9.31917
end	-9.32027
ou	-9.32069
▁avant	-9.32208
▁#222	-9.32646
autre	-9.3289
▁#153	-9.32937
▁#219	-9.32937
▁pu	-9.33069
▁Un	-9.33361
▁savoir	-9.33635
▁saw	-9.33745
▁gens	-9.33968
▁into	-9.34038
▁hope	-9.34115
▁done	-9.342
around	-9.3421
ar	-9.34211
▁two	-9.34227
▁please	-9.3449
▁ré	-9.34563
▁#167	-9.34617
▁#110	-9.34877
▁speak	-9.35082
▁When	-9.3527
▁friend	-9.35434
▁#152	-9.36192
▁problem	-9.37036
▁idea	-9.37327
▁soir	-9.37546
eau	-9.37864
▁#210	-9.38001
▁dog	-9.38029
▁#568	-9.38198
▁enfants	-9.38479
▁heures	-9.3889
▁partir	-9.38942
▁toute	-9.39122
▁why	-9.39421
▁nuit	-9.39423
▁#538	-9.39633
ie	-9.3965
▁everything	-9.39832
luk	-9.39926
▁friends	-9.39934
▁every	-9.40326
▁chien	-9.40469
▁stay	-9.40523
lo	-9.40664
▁jour	-9.40757
▁Marie	-9.40777
▁point	-9.41233
▁#241	-9.4128
▁#243	-9.41308
▁buy	-9.41331
▁aux	-9.4207
▁door	-9.42094
Rock	-9.42203
elles	-9.42262
▁#161	-9.42334
▁next	-9.42338
▁ever	-9.42369
▁#206	-9.42407
▁#163	-9.42725
▁après	-9.4276
▁hear	-9.43167
▁#363	-9.43311
▁late	-9.43321
▁simplement	-9.43331
▁#579	-9.43466
▁T	-9.43618
▁call	-9.43659
êtes	-9.43701
▁ask	-9.43963
▁#177	-9.44117
▁#154	-9.4418
▁suppose	-9.44467
et	-9.44852
ig	-9.45053
▁Cela	-9.45236
aurais	-9.45684
▁pris	-9.45878
▁Would	-9.45916
▁busy	-9.46025
▁name	-9.46068
▁sens	-9.46076
té	-9.46418
▁wrong	-9.46795
▁sûr	-9.46856
▁#119	-9.46942
▁other	-9.46943
▁dernière	-9.47089
▁kind	-9.47237
▁away	-9.47306
tion	-9.48039
▁idée	-9.48127
▁#327	-9.48128
ti	-9.48362
▁live	-9.48399
▁#155	-9.48399
▁#247	-9.48427
th	-9.48951
▁passé	-9.49005
▁#158	-9.49027
ut	-9.49228
▁comment	-9.4955
▁En	-9.49634
▁voulais	-9.49782
▁read	-9.49806
▁chance	-9.50075
▁pouvez	-9.50086
▁petit	-9.50368
▁ces	-9.50376
▁ans	-9.5042
▁remember	-9.50543
▁Puis	-9.50548
▁ou	-9.50686
▁mère	-9.50914
W	-9.50945
▁#321	-9.51167
▁#172	-9.51189
▁let	-9.51478
▁#82	-9.51771
▁pourquoi	-9.51773
▁choses	-9.51915
▁thing	-9.52135
▁parle	-9.52414
▁veut	-9.52554
▁drink	-9.52646
▁first	-9.52706
▁play	-9.52715
▁#566	-9.52768
▁arrivé	-9.52994
sse	-9.53043
▁#230	-9.53202
▁venir	-9.5349
▁nothing	-9.5349
▁quelques	-9.5368
▁rester	-9.53893
▁co	-9.54514
▁sorry	-9.55075
▁#646	-9.55256
aider	-9.55279
▁elle	-9.55374
avoir	-9.55388
▁#200	-9.55717
▁teacher	-9.55741
▁#686	-9.55808
▁gave	-9.56042
▁#174	-9.56201
▁Es	-9.56243
▁may	-9.56513
vos	-9.56514
▁heureux	-9.56533
pat	-9.5689
▁#117	-9.57012
▁Quelle	-9.57036
Petr	-9.57176
▁seule	-9.57239
▁being	-9.57277
▁con	-9.57426
ad	-9.57466
▁questions	-9.57554
▁nouveau	-9.57639
app	-9.57921
▁quelqu	-9.57943
▁#108	-9.57988
▁already	-9.57995
▁yet	-9.58036
paul	-9.58159
▁difficile	-9.5816
▁life	-9.58173
▁years	-9.58305
▁knew	-9.58325
▁things	-9.58446
▁mind	-9.58498
▁came	-9.58621
▁mother	-9.58656
▁anyone	-9.5868
▁took	-9.58762
ici	-9.58944
wift	-9.58988
▁try	-9.59283
▁jours	-9.59388
▁#103	-9.59462
▁semble	-9.59481
▁raison	-9.59496
▁bad	-9.59502
▁nom	-9.59572
ff	-9.59618
▁after	-9.59655
espère	-9.59669
co	-9.59846
isn	-9.59926
rico	-9.59928
▁entendu	-9.59995
de	-9.60018
ique	-9.60185
▁#381	-9.60327
▁#216	-9.60363
▁used	-9.60546
▁#466	-9.60664
▁sait	-9.60742
pe	-9.60932
▁His	-9.61208
▁keep	-9.61283
▁tired	-9.61534
▁looking	-9.6186
▁#229	-9.62026
moo	-9.62124
▁croire	-9.62199
▁answer	-9.62293
▁morning	-9.62369
▁without	-9.62565
▁peur	-9.62575
▁#97	-9.62714
▁care	-9.62721
▁#179	-9.62887
▁#170	-9.62887
▁#339	-9.62959
ex	-9.62991
▁#450	-9.6318
▁Your	-9.63215
▁#413	-9.63233
▁#245	-9.63398
▁#476	-9.63406
▁#125	-9.6358
▁#149	-9.6358
33)	-9.63943
ement	-9.64162
▁All	-9.64194
▁#253	-9.64243
▁demandé	-9.64295
▁voulez	-9.6463
▁#223	-9.64806
▁found	-9.64957
▁#162	-9.64983
▁#84	-9.65046
oco	-9.6512
▁best	-9.65203
▁#198	-9.65238
▁#752	-9.65244
▁De	-9.65355
▁trouver	-9.65416
▁#246	-9.65489
▁#75	-9.65495
ck	-9.6554
▁rendre	-9.65636
if	-9.6577
▁heard	-9.66067
ver	-9.66166
▁fille	-9.66193
Lu	-9.66193
▁semaine	-9.6623
am	-9.66498
▁#540	-9.66584
▁non	-9.66729
▁lost	-9.66765
ha	-9.66784
▁#487	-9.66949
▁children	-9.67304
▁seen	-9.6735
▁wish	-9.67486
▁often	-9.67491
▁#89	-9.6761
cu	-9.67635
▁stop	-9.67666
▁important	-9.67691
▁their	-9.67709
èrent	-9.67729
▁matin	-9.67842
▁#585	-9.67848
▁#455	-9.68277
▁#344	-9.68394
▁#562	-9.68451
▁same	-9.68784
▁change	-9.68918
▁#73	-9.69002
▁#166	-9.69071
Ge	-9.69236
▁chambre	-9.69312
▁cha	-9.69312
ide	-9.69327
▁demande	-9.6939
▁#104	-9.69452
▁minutes	-9.69684
▁police	-9.69693
▁these	-9.69753
▁tôt	-9.69798
▁#559	-9.69809
▁accident	-9.69885
▁big	-9.69903
ac	-9.70259
▁table	-9.70374
▁V	-9.70711
né	-9.70864
▁#536	-9.7087
▁ready	-9.70899
▁show	-9.70925
ré	-9.70988
▁water	-9.71173
accord	-9.7136
▁ten	-9.71429
au	-9.71569
▁tes	-9.71589
▁prie	-9.71845
Romi	-9.72144
▁bed	-9.72168
▁May	-9.72267
▁souvent	-9.72305
ier	-9.72317
▁Could	-9.72496
▁pay	-9.72592
▁#191	-9.72622
▁#207	-9.72686
▁haven	-9.72832
▁afraid	-9.72877
▁Quan	-9.72889
▁p	-9.72944
nar	-9.73309
▁#372	-9.73496
▁met	-9.7358
sa	-9.74083
ions	-9.74615
▁use	-9.74725
cles	-9.74981
▁#122	-9.75
▁#582	-9.75
▁#683	-9.75
▁soon	-9.75096
▁#334	-9.75182
▁#94	-9.75196
lantis	-9.752
ka	-9.75214
J	-9.7522
▁femme	-9.75285
▁possible	-9.75408
▁depuis	-9.75605
▁#570	-9.75636
271	-9.75709
▁#178	-9.75784
Ec	-9.75822
▁pendant	-9.76376
▁trouvé	-9.76383
▁#335	-9.76437
▁ami	-9.76491
▁mort	-9.76546
ta	-9.76548
▁English	-9.76574
▁amis	-9.76574
feli	-9.76577
▁else	-9.76581
▁#141	-9.76971
▁savais	-9.77117
▁#367	-9.77706
▁happen	-9.77749
▁com	-9.7794
▁#176	-9.77971
▁#205	-9.77971
▁cet	-9.78122
▁yourself	-9.78173
▁jusqu	-9.7858
ag	-9.78613
▁perdu	-9.78672
▁crois	-9.78719
▁party	-9.78779
▁retard	-9.78981
▁homme	-9.7911
mes	-9.79259
▁#93	-9.79592
▁pièce	-9.79592
▁fête	-9.79624
▁acheté	-9.79797
▁great	-9.79797
▁#186	-9.79815
▁b	-9.79884
ow	-9.79961
▁#106	-9.79993
▁#194	-9.80001
▁frère	-9.80001
▁#360	-9.80145
▁secret	-9.80207
▁brother	-9.80412
▁cold	-9.80423
▁hurt	-9.80619
▁tard	-9.80657
▁lit	-9.80747
▁lorsqu	-9.80882
▁#173	-9.81032
aient	-9.8107
▁#534	-9.8124
▁longtemps	-9.81242
▁pro	-9.81294
▁even	-9.81401
▁#465	-9.8161
ard	-9.81611
▁#347	-9.81656
ven	-9.81657
▁quelle	-9.8177
▁br	-9.81833
▁prêt	-9.81884
▁sera	-9.81909
▁Son	-9.8203
ser	-9.82076
▁#88	-9.82085
▁#331	-9.8213
▁aider	-9.82483
▁#126	-9.82494
▁difficult	-9.82494
ine	-9.82508
▁#477	-9.82597
▁wait	-9.82785
▁myself	-9.83127
▁autre	-9.83216
▁few	-9.83551
▁talking	-9.83718
▁trouve	-9.8377
cause	-9.8385
és	-9.83852
▁#105	-9.83975
▁rain	-9.8424
▁hate	-9.8427
▁lettre	-9.84414
▁dur	-9.84606
▁#99	-9.84619
▁téléphone	-9.84619
ive	-9.84633
▁nice	-9.84699
▁#250	-9.84746
fran	-9.84869
▁#127	-9.8497
▁#351	-9.8505
▁bought	-9.85055
ite	-9.85076
▁#485	-9.85093
▁h	-9.85098
adore	-9.85298
getting	-9.85689
▁letter	-9.85724
▁open	-9.85843
▁grande	-9.85849
ignore	-9.85898
▁#217	-9.85917
▁#529	-9.85917
▁fort	-9.8607
lb	-9.86107
▁matter	-9.86135
bear	-9.86324
▁glad	-9.86353
▁#340	-9.86572
ers	-9.86712
▁#530	-9.87011
mouche	-9.87011
▁might	-9.87033
▁#421	-9.87231
▁while	-9.87231
▁lire	-9.87389
▁passe	-9.87522
▁cat	-9.87532
▁#90	-9.8755
▁fun	-9.87759
même	-9.88104
▁sleep	-9.88644
▁main	-9.88689
▁Be	-9.88758
▁#343	-9.88787
▁#423	-9.88955
▁#537	-9.8901
▁pouvons	-9.89011
▁ville	-9.89012
▁su	-9.89212
▁leur	-9.89222
▁write	-9.89461
▁moins	-9.89469
▁jouer	-9.8949
ho	-9.89537
▁vrai	-9.89822
bo	-9.89829
▁married	-9.89913
▁food	-9.89913
▁far	-9.89936
▁pourrait	-9.89972
min	-9.90553
▁#83	-9.90594
▁#91	-9.90594
▁sister	-9.90596
▁year	-9.9087
▁travailler	-9.909
▁aime	-9.91014
▁#113	-9.91052
▁#689	-9.91052
▁true	-9.91056
▁#483	-9.91167
ité	-9.9148
▁sujet	-9.91511
▁early	-9.91514
▁walk	-9.91606
mer	-9.9166
▁#124	-9.91741
▁partie	-9.91881
▁another	-9.91972
▁own	-9.92244
nce	-9.92312
ther	-9.92351
▁étaient	-9.92436
▁devons	-9.92438
▁heure	-9.92459
toi	-9.92659
fisher	-9.92669
▁D	-9.92693
▁sortir	-9.93133
▁donné	-9.93166
▁Une	-9.93344
ate	-9.93349
avons	-9.93485
▁#159	-9.93604
ejo	-9.93606
heure	-9.93814
▁#589	-9.93839
▁beautiful	-9.93839
▁coup	-9.93935
▁#188	-9.93999
arn	-9.94069
▁occupé	-9.9407
▁#549	-9.94075
ance	-9.9418
▁#169	-9.94251
▁café	-9.94312
stan	-9.94395
▁travaille	-9.94429
▁#541	-9.94434
lé	-9.94538
▁#148	-9.94548
▁#214	-9.94549
▁allé	-9.94674
▁#291	-9.94696
▁mis	-9.94739
apprécie	-9.94774
▁#156	-9.94786
tre	-9.94847
▁#182	-9.94963
▁sois	-9.94986
▁tried	-9.95028
▁nouvelle	-9.95094
▁venu	-9.95399
▁#157	-9.95502
▁pensé	-9.95628
▁Sa	-9.95644
▁looks	-9.95856
▁passer	-9.96034
▁parti	-9.96063
iv	-9.96085
▁such	-9.9624
▁#337	-9.96261
ner	-9.96315
▁donner	-9.96364
▁person	-9.96515
▁#342	-9.96707
▁vérité	-9.96707
▁doctor	-9.96949
▁doit	-9.97004
▁young	-9.97082
xy	-9.97185
▁#528	-9.97193
du	-9.97222
▁meeting	-9.97249
▁photo	-9.97279
▁truth	-9.97437
rai	-9.97579
▁mine	-9.97624
▁watch	-9.97791
and	-9.9782
▁#754	-9.9785
▁anymore	-9.97926
ue	-9.97956
▁heureuse	-9.98424
▁wants	-9.98614
em	-9.98806
fi	-9.98864
aide	-9.99001
▁journée	-9.99164
▁rest	-9.99185
▁connais	-9.99208
fy	-9.99274
▁aren	-9.99304
▁#557	-9.9935
▁petite	-9.99394
▁presque	-9.99659
▁#120	-9.99909
▁#583	-9.99909
▁#595	-9.99909
▁devriez	-9.99909
ty	-9.99951
▁#208	-10.0016
▁famille	-10.0016
▁fini	-10.0052
▁film	-10.0071
▁#215	-10.008
art	-10.01
▁#352	-10.0117
▁#85	-10.0117
▁davantage	-10.0117
▁around	-10.012
▁#777	-10.0136
▁mot	-10.016
▁coffee	-10.0168
▁jeune	-10.0184
▁station	-10.0194
▁hand	-10.0202
ous	-10.0209
▁soyez	-10.0219
oul	-10.0244
▁#548	-10.0244
▁#693	-10.0247
bi	-10.0251
dev	-10.0253
Po	-10.0254
▁faites	-10.0256
▁#452	-10.0273
▁#138	-10.0275
▁days	-10.0277
▁attention	-10.0292
▁coming	-10.0293
▁dinner	-10.0296
▁#211	-10.0324
▁meet	-10.0332
par	-10.0333
▁#213	-10.0342
▁Pouv	-10.0346
aller	-10.0347
▁#98	-10.0348
▁#567	-10.0374
▁#468	-10.0387
▁Tell	-10.0388
▁tennis	-10.0426
▁turn	-10.0438
325	-10.0441
▁knows	-10.0454
▁gr	-10.046
Ama	-10.0462
▁mange	-10.0474
Goo	-10.0479
▁enjoy	-10.048
spen	-10.0486
▁bureau	-10.0505
man	-10.0527
▁#545	-10.0533
▁plu	-10.0544
▁books	-10.0559
▁#419	-10.0572
▁#663	-10.0572
▁almo	-10.0572
▁#116	-10.0584
▁#100	-10.0593
▁#575	-10.0596
▁#471	-10.061
▁sûre	-10.0626
▁careful	-10.0635
ante	-10.0679
▁bit	-10.0706
▁#533	-10.0718
▁#87	-10.0718
▁close	-10.0724
▁po	-10.0726
▁#440	-10.0738
▁spend	-10.0746
use	-10.0749
▁#234	-10.0772
papa	-10.0772
ever	-10.0778
▁meilleur	-10.0797
▁déteste	-10.0815
▁once	-10.0818
ist	-10.0823
▁together	-10.0826
▁Everyone	-10.0826
▁#64	-10.0828
▁family	-10.088
j	-10.0882
▁#282	-10.0893
▁#591	-10.0908
▁#685	-10.0935
▁touch	-10.0935
les	-10.0936
▁tellement	-10.094
ity	-10.0949
539	-10.0952
▁seem	-10.0955
▁fatigué	-10.096
▁#123	-10.0963
▁devez	-10.0963
▁someone	-10.0964
année	-10.0964
▁#408	-10.099
▁restaurant	-10.099
▁voulait	-10.099
▁situation	-10.099
▁felt	-10.099
▁désolé	-10.0992
▁waiting	-10.0998
ring	-10.0998
▁phone	-10.1018
▁laissé	-10.1018
lu	-10.1023
▁#1339	-10.1028
ca	-10.1033
▁#285	-10.1074
cr	-10.1079
▁joue	-10.1086
▁#22184	-10.1092
▁reste	-10.1093
▁drive	-10.1122
▁#755	-10.1127
▁tonight	-10.1131
ire	-10.1137
qu	-10.1156
▁combien	-10.1165
less	-10.1168
▁vin	-10.12
▁#647	-10.1213
▁#336	-10.1214
▁étiez	-10.1214
▁face	-10.1217
▁start	-10.1223
▁word	-10.1269
▁chat	-10.127
▁livres	-10.1282
▁Re	-10.1298
▁seems	-10.1306
▁girl	-10.1325
▁aucune	-10.1327
rik	-10.1329
▁#576	-10.1357
▁world	-10.1357
▁wonder	-10.1357
▁mangé	-10.1366
▁fl	-10.1375
▁réponse	-10.1385
▁trying	-10.1396
ting	-10.1411
▁each	-10.1415
rent	-10.142
164	-10.1426
▁study	-10.1437
▁#535	-10.146
▁both	-10.1466
▁#472	-10.1472
▁pretty	-10.1472
aux	-10.1477
▁demander	-10.149
ille	-10.149
▁child	-10.1501
▁#187	-10.1501
▁#86	-10.1501
688	-10.152
▁#694	-10.1524
ba	-10.1525
▁working	-10.1528
Barbi	-10.153
▁#495	-10.153
▁Veuillez	-10.153
▁easy	-10.153
▁light	-10.1532
▁learn	-10.1541
▁forget	-10.1546
▁#388	-10.155
635	-10.1556
▁six	-10.1557
▁propos	-10.1557
▁#328	-10.156
R	-10.1565
▁died	-10.1571
ry	-10.1574
▁minute	-10.1588
▁#656	-10.1589
▁vue	-10.159
▁Get	-10.1595
our	-10.1603
▁quel	-10.1606
▁longer	-10.1607
▁rend	-10.1616
▁froid	-10.1618
dou	-10.1649
▁visit	-10.1657
▁#531	-10.1672
kebu	-10.1677
▁enfant	-10.168
▁déjeuner	-10.1682
cl	-10.1694
▁cause	-10.1696
▁belle	-10.1711
▁sick	-10.1713
eur	-10.1723
▁fire	-10.1726
ke	-10.173
▁#499	-10.1737
▁pouvoir	-10.1737
▁mean	-10.1743
▁mauvais	-10.1753
▁tête	-10.1757
▁Take	-10.1767
▁beau	-10.1771
▁dix	-10.1773
▁started	-10.1775
▁dernier	-10.1797
▁#362	-10.1827
▁wife	-10.1827
▁Give	-10.1827
rom	-10.183
▁#22836	-10.1853
▁nager	-10.1863
▁run	-10.1864
▁manière	-10.1888
▁#506	-10.1911
▁écrit	-10.1938
▁aide	-10.1941
▁aucun	-10.1942
▁arrive	-10.1943
▁#519	-10.1948
▁#709	-10.1948
▁réunion	-10.1948
▁high	-10.1948
▁window	-10.1948
▁bu	-10.1954
▁#563	-10.1978
▁malade	-10.1979
ure	-10.1986
ga	-10.2007
▁viens	-10.2009
▁boy	-10.201
▁sous	-10.2028
▁#593	-10.2034
▁gone	-10.2036
▁#546	-10.2039
▁gare	-10.2041
▁small	-10.2043
▁certain	-10.2052
jc	-10.2056
▁#574	-10.207
▁#171	-10.207
▁médecin	-10.207
▁attend	-10.2074
rais	-10.2077
▁#121	-10.2101
▁Voul	-10.2102
▁finished	-10.2106
▁Does	-10.2107
ui	-10.2107
ap	-10.211
▁dollars	-10.211
▁surprised	-10.2118
▁devrait	-10.2132
▁tra	-10.2154
guy	-10.2159
▁#2549	-10.2163
▁Merci	-10.2163
▁swim	-10.2163
▁vivre	-10.2163
▁facile	-10.2192
▁#518	-10.2194
midi	-10.2195
▁usual	-10.2196
▁comprendre	-10.2202
▁quit	-10.2212
▁colère	-10.2225
he	-10.2239
▁vite	-10.2241
▁prison	-10.2272
▁#801	-10.2288
▁free	-10.2289
▁#2543	-10.232
▁voudrais	-10.232
▁office	-10.232
▁Will	-10.2325
▁#469	-10.2327
▁compte	-10.2331
▁serait	-10.2344
▁#346	-10.2351
▁feu	-10.237
▁looked	-10.2377
▁#704	-10.2378
▁fils	-10.2381
▁danger	-10.2382
▁those	-10.2385
pri	-10.2385
▁vieux	-10.2386
▁garçon	-10.239
E	-10.242
▁seulement	-10.2421
ang	-10.2429
importe	-10.245
▁pourrais	-10.2456
▁serai	-10.2461
▁most	-10.2463
▁#459	-10.2469
▁ferais	-10.2472
ler	-10.2473
▁#358	-10.2479
▁devrions	-10.2479
▁nourriture	-10.2479
▁#648	-10.248
▁comprends	-10.248
▁envie	-10.248
ru	-10.2492
▁personnes	-10.2494
▁#572	-10.2496
▁#326	-10.2497
▁#542	-10.2511
▁ensemble	-10.2511
▁vit	-10.2518
um	-10.2537
▁#442	-10.2543
▁lunch	-10.2543
Bla	-10.2544
▁yeux	-10.2555
▁Stop	-10.2576
666	-10.2595
▁rencontré	-10.2599
▁#496	-10.2608
▁vas	-10.2612
là	-10.2615
▁assis	-10.2619
▁#779	-10.2622
pé	-10.2629
▁mistake	-10.2634
▁#592	-10.2635
▁#491	-10.2641
ét	-10.2658
rait	-10.2662
▁music	-10.2671
▁park	-10.2673
▁#286	-10.2674
▁#516	-10.2674
ence	-10.2684
mi	-10.2692
▁#409	-10.2706
qui	-10.2728
▁#482	-10.2739
intention	-10.2739
itty	-10.2741
tri	-10.2742
▁near	-10.2747
▁movie	-10.2749
▁likes	-10.276
tôt	-10.2769
▁travers	-10.2772
▁Just	-10.2775
▁Not	-10.2799
▁premier	-10.2805
▁oublié	-10.2806
▁#2546	-10.2839
▁conduire	-10.2839
▁fenêtre	-10.2839
▁mettre	-10.284
▁près	-10.2842
im	-10.286
▁pays	-10.2861
▁reason	-10.2872
▁#416	-10.2905
▁Nobody	-10.2905
▁côté	-10.2905
▁weather	-10.2905
gé	-10.2906
▁#348	-10.2913
▁#480	-10.2933
▁fast	-10.2934
▁song	-10.2935
▁boire	-10.2939
▁voyage	-10.294
ché	-10.297
▁game	-10.2976
▁agree	-10.2994
▁#456	-10.3005
Do	-10.3006
▁Dis	-10.3006
▁fit	-10.3013
ph	-10.3017
ies	-10.3019
til	-10.3038
▁story	-10.304
exc	-10.3051
▁regarder	-10.3055
▁acheter	-10.306
▁laisser	-10.3062
▁#353	-10.3074
▁#92	-10.3074
▁Quelqu	-10.308
sea	-10.3098
▁Laisse	-10.3103
▁puisse	-10.3106
▁eyes	-10.3106
▁worry	-10.3108
▁verre	-10.3113
ated	-10.3118
▁serais	-10.3144
▁TV	-10.3148
▁erreur	-10.3153
▁trust	-10.3171
▁confiance	-10.3177
▁chemin	-10.3177
▁large	-10.3177
▁#1847	-10.3211
▁#515	-10.3211
▁#555	-10.3211
▁dream	-10.3212
▁autant	-10.3214
▁Come	-10.322
▁tant	-10.3224
imp	-10.323
▁mois	-10.3238
▁#212	-10.3246
▁amie	-10.326
I	-10.3262
sharp	-10.3281
▁#418	-10.3281
▁piano	-10.3281
▁essayé	-10.3283
▁#628	-10.3289
▁stupid	-10.3306
▁#458	-10.3312
▁#474	-10.3315
▁#356	-10.3316
▁#426	-10.3316
▁trouble	-10.3316
▁reading	-10.3329
▁professeur	-10.3351
▁contre	-10.3352
entre	-10.3369
▁surprise	-10.3387
▁ran	-10.3387
▁#668	-10.3421
▁guess	-10.3421
▁everyone	-10.3421
▁anybody	-10.3425
▁#561	-10.3451
▁#397	-10.3456
▁hours	-10.3484
▁ago	-10.3488
▁vélo	-10.3492
▁angry	-10.3492
ko	-10.3506
mar	-10.3508
▁act	-10.352
▁ainsi	-10.3527
fer	-10.353
▁celui	-10.3531
martin	-10.3531
▁R	-10.3552
lohi	-10.3557
▁#436	-10.3563
▁exactement	-10.3563
▁parlé	-10.3567
hi	-10.3576
urs	-10.358
▁fou	-10.3581
sbam	-10.3599
▁#361	-10.3599
▁himself	-10.3599
sbamsbam	-10.3599
▁bientôt	-10.3601
ain	-10.3613
▁makes	-10.3619
▁#379	-10.3624
▁langue	-10.3635
exco	-10.3648
Ape	-10.3654
▁opinion	-10.3655
ought	-10.3669
▁#470	-10.3671
▁advice	-10.3671
▁fell	-10.3671
IE	-10.3671
▁picture	-10.3691
polon	-10.3707
▁since	-10.3713
▁content	-10.3714
▁dormir	-10.3715
▁dispose	-10.3726
▁broke	-10.3728
▁having	-10.3744
melo	-10.3769
Waka	-10.378
do	-10.3785
▁Tou	-10.3785
▁#1347	-10.3787
▁safe	-10.3803
sez	-10.3809
▁hair	-10.382
▁vient	-10.3825
anglais	-10.3845
homme	-10.3847
▁vois	-10.3848
▁playing	-10.3868
▁called	-10.3873
▁exactly	-10.3891
omad	-10.3898
▁autres	-10.3902
151	-10.3907
tic	-10.3908
tor	-10.3925
▁#142	-10.3927
▁prix	-10.3928
▁pain	-10.3948
▁die	-10.3953
▁boulot	-10.3965
▁musique	-10.3965
▁riche	-10.3976
turned	-10.3983
ja	-10.4006
▁lie	-10.4019
▁bicycle	-10.4039
▁Japan	-10.4039
▁dîner	-10.4039
emb	-10.4043
▁loin	-10.4048
▁sing	-10.405
▁commence	-10.4064
▁endroit	-10.4069
▁Japon	-10.4069
▁afternoon	-10.4077
▁caught	-10.4077
ilohi	-10.4085
P	-10.4089
▁lu	-10.4092
160	-10.4096
▁class	-10.4096
▁win	-10.4096
vert	-10.4101
▁students	-10.4107
▁chanson	-10.4115
▁number	-10.4115
▁puis	-10.4132
bas	-10.4152
▁#463	-10.4153
▁terminé	-10.4153
▁plait	-10.4154
▁In	-10.4157
inti	-10.4162
▁lieu	-10.4164
▁vers	-10.4174
▁lives	-10.4188
▁alors	-10.4191
▁genre	-10.4191
▁red	-10.4191
ful	-10.4227
▁#430	-10.4229
▁#710	-10.4229
avait	-10.4247
▁dress	-10.4261
▁gros	-10.4265
▁vis	-10.4268
▁probablement	-10.4268
dessus	-10.427
▁decided	-10.4272
320	-10.4299
▁#2647	-10.4305
▁country	-10.4306
▁Whi	-10.4329
ear	-10.433
▁arm	-10.4335
pawn	-10.4344
▁#573	-10.4344
▁occupée	-10.4345
▁Mes	-10.4353
▁prochaine	-10.4359
cé	-10.4363
▁#484	-10.4376
▁#553	-10.4377
▁#422	-10.4383
▁Peut	-10.4383
▁interesting	-10.4384
▁hot	-10.4386
▁entre	-10.4391
488	-10.4395
avion	-10.4404
sic	-10.4418
▁pouvais	-10.4422
▁rêve	-10.4422
▁clean	-10.4422
▁interested	-10.4424
▁four	-10.4431
▁#590	-10.4461
▁message	-10.4461
▁#233	-10.4463
igne	-10.4481
▁probabl	-10.4483
ip	-10.4485
gall	-10.4492
remi	-10.4495
▁radio	-10.45
▁#1293	-10.45
▁appreciate	-10.45
▁cheveux	-10.45
gi	-10.4503
▁décidé	-10.4505
ste	-10.4508
euse	-10.4513
▁#400	-10.4539
▁#429	-10.4539
▁respect	-10.454
▁times	-10.4552
▁eating	-10.4566
▁journal	-10.4579
der	-10.459
▁arrived	-10.4601
▁says	-10.4602
▁#673	-10.4612
▁#1314	-10.4615
▁histoire	-10.4615
▁penser	-10.4618
▁payer	-10.4629
▁cent	-10.4631
Whi	-10.4635
▁thinking	-10.4636
ées	-10.4643
▁stand	-10.4654
▁proud	-10.4659
▁nos	-10.467
▁Her	-10.4674
▁short	-10.4691
▁première	-10.4698
▁town	-10.4699
▁fier	-10.4701
▁Laissez	-10.4704
▁attendre	-10.4722
fu	-10.4723
▁visite	-10.4724
▁fasse	-10.4739
▁box	-10.4739
▁#467	-10.4749
ris	-10.475
iba	-10.4752
kar	-10.4759
▁#581	-10.4773
▁Ces	-10.4775
▁#345	-10.4779
▁patient	-10.4779
▁promise	-10.4782
▁miss	-10.4791
▁sign	-10.4802
▁#657	-10.4819
▁forgot	-10.4819
agit	-10.482
▁thé	-10.4821
▁per	-10.4822
line	-10.4826
▁type	-10.486
▁trip	-10.4862
▁#427	-10.4873
▁surpris	-10.4877
▁sac	-10.488
▁dead	-10.4885
erab	-10.4901
▁#2541	-10.4901
▁#435	-10.4901
habitude	-10.4901
▁different	-10.4901
266	-10.4902
▁cost	-10.4905
▁#235	-10.4926
▁Fais	-10.494
▁Tokyo	-10.4942
▁dehors	-10.4942
slay	-10.4942
▁pl	-10.4966
▁sit	-10.4981
▁#395	-10.4983
▁#407	-10.4983
▁#700	-10.4983
▁#724	-10.4983
▁produit	-10.4983
▁through	-10.4983
▁homework	-10.4984
▁fix	-10.4984
▁advised	-10.4985
▁celle	-10.5008
niv	-10.501
▁#411	-10.5024
▁#660	-10.5024
▁blessé	-10.5029
▁cinq	-10.5031
▁#1340	-10.5036
▁chanter	-10.5046
▁#638	-10.5049
▁Go	-10.5049
▁#447	-10.5066
▁Japanese	-10.5066
▁snow	-10.5066
▁appris	-10.5066
▁sent	-10.5069
up	-10.5073
alex	-10.5074
chi	-10.5079
▁chaud	-10.5084
679	-10.5088
▁#560	-10.5101
▁différent	-10.5108
▁faim	-10.5108
▁sorte	-10.5111
▁rencontrer	-10.5134
▁#2406	-10.514
▁senti	-10.5145
▁Everybody	-10.5149
▁language	-10.5149
▁#644	-10.5173
▁#671	-10.5185
▁#558	-10.5191
▁#1330	-10.5194
▁prête	-10.5198
▁E	-10.52
▁mauvaise	-10.5211
▁#2407	-10.5229
▁pré	-10.5242
▁rappelle	-10.5252
▁#532	-10.5264
▁#594	-10.527
▁#517	-10.527
▁#544	-10.527
toothed	-10.5276
▁choix	-10.5276
▁catch	-10.5302
▁#631	-10.5318
▁Look	-10.5318
▁concert	-10.5318
▁favorite	-10.5319
▁capable	-10.5319
▁daughter	-10.532
▁sp	-10.5322
▁under	-10.5334
ira	-10.5339
▁force	-10.5342
▁lose	-10.5351
▁#354	-10.5355
▁#2643	-10.5361
▁#2645	-10.5361
▁#414	-10.5361
▁#434	-10.5361
▁auparavant	-10.5361
quelle	-10.5373
▁vol	-10.538
▁leurs	-10.5384
▁présent	-10.5399
▁#521	-10.5404
▁#712	-10.5404
▁become	-10.5404
▁peuvent	-10.5404
▁#645	-10.5404
L	-10.5405
▁laisse	-10.541
▁arrêté	-10.541
▁montre	-10.5411
▁Pourri	-10.5417
ish	-10.5426
▁bas	-10.5438
▁#509	-10.5447
▁taxi	-10.5449
ible	-10.546
▁#554	-10.5491
▁baby	-10.5491
mor	-10.5493
étranger	-10.5516
iste	-10.553
▁#1395	-10.5532
▁#350	-10.5534
▁choice	-10.5534
▁against	-10.554
▁#643	-10.5541
▁later	-10.5542
▁Vot	-10.5542
aper	-10.5555
▁finish	-10.557
▁#764	-10.5578
cher	-10.5582
out	-10.5602
▁dites	-10.5604
▁Keep	-10.5605
▁kept	-10.5622
▁born	-10.5622
non	-10.5623
▁end	-10.5623
▁news	-10.5629
appeler	-10.5631
▁#24022	-10.5644
▁rich	-10.5658
▁#1317	-10.5659
▁offer	-10.5662
▁#404	-10.5666
▁#520	-10.5666
▁#543	-10.5666
▁nécessaire	-10.5666
▁listen	-10.5666
▁devoirs	-10.5677
▁#2408	-10.5689
▁désolée	-10.5708
▁Pourrai	-10.5708
▁apprendre	-10.5709
▁#621	-10.571
▁living	-10.571
qué	-10.5719
▁penses	-10.5725
▁essayer	-10.5732
▁prochain	-10.5738
▁#632	-10.5738
bout	-10.5749
▁pouvait	-10.5754
▁tree	-10.5757
▁montrer	-10.5758
▁étais	-10.5775
▁classe	-10.5776
log	-10.5777
land	-10.5779
▁outside	-10.5799
chto	-10.5812
▁marcher	-10.5815
op	-10.5828
460	-10.583
▁saying	-10.5834
▁Pour	-10.5834
▁simple	-10.5842
▁hands	-10.5849
ient	-10.586
ball	-10.5869
▁wine	-10.587
▁appelé	-10.5875
▁#18415	-10.5881
▁#774	-10.5889
▁business	-10.5889
▁reçu	-10.5889
▁immédiatement	-10.5889
▁discuter	-10.5891
▁#2545	-10.5901
▁men	-10.5917
▁yours	-10.5925
▁#2542	-10.5926
ois	-10.5928
▁#1300	-10.5937
▁hat	-10.5942
▁fin	-10.5949
▁shoes	-10.595
ale	-10.595
▁tea	-10.5962
▁strong	-10.598
▁report	-10.598
305	-10.5986
Bru	-10.5992
▁head	-10.6002
▁nouvelles	-10.6013
▁hospital	-10.6025
▁machine	-10.6025
▁hungry	-10.6025
▁age	-10.6034
▁#1356	-10.6045
▁information	-10.6047
▁entendre	-10.6064
▁façon	-10.6071
653	-10.6072
▁pensez	-10.6089
▁#1351	-10.6092
▁cut	-10.6095
▁allons	-10.61
▁neige	-10.6106
aus	-10.6108
▁computer	-10.6117
▁tort	-10.6117
▁changer	-10.6133
▁#357	-10.6157
▁girlfriend	-10.6163
▁taking	-10.6163
▁making	-10.6163
▁préfère	-10.6163
▁étions	-10.6164
▁vont	-10.6166
▁sound	-10.6169
imm	-10.6191
▁carte	-10.6201
sol	-10.6206
▁#475	-10.621
▁#773	-10.621
▁date	-10.6231
▁cours	-10.6242
▁Au	-10.6248
▁#497	-10.6257
ical	-10.6262
▁répondre	-10.6263
▁check	-10.6268
▁#1360	-10.6268
▁#2644	-10.6268
été	-10.6274
The	-10.6279
appelle	-10.6296
▁#391	-10.6304
▁#577	-10.6304
▁sécurité	-10.6304
▁peine	-10.6304
▁front	-10.6304
inter	-10.632
▁problèmes	-10.6323
▁rendu	-10.6329
▁team	-10.6332
▁break	-10.6334
▁#406	-10.6351
▁#489	-10.6351
▁#661	-10.6351
▁commencé	-10.6351
instant	-10.6354
ade	-10.6355
▁arriver	-10.6355
▁anglais	-10.6361
gue	-10.6385
▁chaussures	-10.6398
ud	-10.6399
▁handle	-10.6406
▁savait	-10.6407
▁older	-10.6419
▁#355	-10.6446
▁#478	-10.6446
▁behind	-10.6446
▁décision	-10.6446
▁magasin	-10.6446
rotter	-10.6446
ak	-10.6446
▁bière	-10.6446
▁paper	-10.6447
▁chercher	-10.6455
▁perdre	-10.6461
▁month	-10.6463
Of	-10.6465
▁#9531	-10.6485
▁#550	-10.6487
▁#2646	-10.6487
ble	-10.649
▁Monday	-10.6494
▁impossible	-10.6494
▁public	-10.6494
bourd	-10.6496
▁#1359	-10.6514
▁rentrer	-10.6532
▁fus	-10.6533
bou	-10.6554
▁pre	-10.6571
▁seat	-10.6587
▁#175	-10.659
▁#659	-10.659
▁boîte	-10.659
▁coûte	-10.659
▁Some	-10.6591
▁fall	-10.6608
rons	-10.6616
▁regarde	-10.6635
▁#369	-10.6639
▁bébé	-10.6639
▁company	-10.6639
▁lumière	-10.6639
▁woman	-10.6639
rational	-10.6639
clock	-10.6639
▁aimé	-10.664
▁emploi	-10.6641
▁deal	-10.665
gg	-10.6651
eb	-10.666
▁tomber	-10.666
lon	-10.6675
▁Pense	-10.6682
time	-10.6683
▁#690	-10.6687
▁santé	-10.6687
▁cou	-10.6717
▁cas	-10.6718
▁savez	-10.6718
▁explain	-10.6729
▁cher	-10.6736
▁#481	-10.6736
▁hurry	-10.6736
▁summer	-10.6736
▁intelligent	-10.6736
▁rue	-10.6742
shir	-10.6771
ami	-10.6773
▁sorti	-10.6775
▁real	-10.6777
▁revoir	-10.6786
▁paid	-10.6786
▁nombreux	-10.6786
ia	-10.6794
▁vieille	-10.6794
▁needs	-10.6795
▁propre	-10.6796
▁#462	-10.6814
▁parce	-10.6821
▁needed	-10.6825
▁lundi	-10.6835
662	-10.6853
teau	-10.686
▁eaten	-10.6861
▁poste	-10.6862
▁#707	-10.6864
ally	-10.6864
▁gagner	-10.6865
▁order	-10.688
▁serious	-10.6882
▁mains	-10.6884
▁#461	-10.6885
▁rouge	-10.6885
▁present	-10.6885
▁beer	-10.6888
▁souci	-10.6897
▁Sais	-10.6897
▁hour	-10.6897
▁ju	-10.6904
arbre	-10.6928
aille	-10.693
▁cadeau	-10.6935
examen	-10.6949
▁pa	-10.696
mu	-10.6967
▁Peu	-10.6985
▁five	-10.6987
▁full	-10.6989
▁#424	-10.7036
▁voulons	-10.7036
▁route	-10.7036
▁ferai	-10.7038
cor	-10.704
▁key	-10.7049
riez	-10.7061
▁stayed	-10.7063
▁#18416	-10.7079
150	-10.708
▁#1806	-10.7086
▁#500	-10.7086
▁bruit	-10.7086
▁libre	-10.7086
▁soin	-10.7114
▁works	-10.7127
▁cook	-10.7128
▁fumer	-10.7141
▁hit	-10.7147
ane	-10.7148
▁student	-10.7148
▁stupide	-10.7151
▁sat	-10.7156
▁An	-10.7159
cal	-10.7163
ach	-10.7188
▁breakfast	-10.7189
▁decision	-10.7189
▁télévision	-10.7189
▁funny	-10.7189
▁quickly	-10.7189
▁télé	-10.7189
▁clothes	-10.719
▁rapidement	-10.719
jo	-10.7191
▁city	-10.7195
▁OK	-10.7199
wa	-10.723
ayez	-10.7232
accident	-10.7235
▁#431	-10.724
▁devenir	-10.724
▁surviv	-10.7242
▁invited	-10.7243
▁second	-10.7244
269	-10.7251
su	-10.7258
▁allez	-10.7263
pie	-10.7273
▁écrire	-10.7283
▁donne	-10.7283
enne	-10.7286
▁fish	-10.7287
▁Faites	-10.7292
▁complètement	-10.7292
▁crazy	-10.7292
▁store	-10.7292
pik	-10.7292
▁Dites	-10.7293
399	-10.7296
▁imagin	-10.7299
rez	-10.73
▁dance	-10.7323
arrêter	-10.7327
arme	-10.7335
▁#596	-10.7344
▁#670	-10.7344
▁derrière	-10.7344
▁numéro	-10.7344
▁Pensez	-10.735
▁final	-10.7351
▁#23619	-10.7353
▁commencer	-10.7366
▁retour	-10.7371
▁#776	-10.7379
▁idiot	-10.7379
▁expect	-10.7383
▁#9532	-10.7385
▁kill	-10.7392
▁#674	-10.7397
one	-10.7403
▁Cet	-10.7407
▁dark	-10.7407
▁aurait	-10.7417
▁#1358	-10.7418
ule	-10.743
▁plein	-10.7437
▁Australia	-10.7449
▁vouloir	-10.7449
▁charge	-10.745
cour	-10.7464
ali	-10.7482
▁#1309	-10.7489
▁#1341	-10.7495
hôtel	-10.7502
▁#527	-10.7502
▁voulu	-10.7502
pierre	-10.7502
irai	-10.7513
▁watching	-10.7515
▁#1364	-10.7549
▁#2540	-10.7555
▁#387	-10.7555
▁#394	-10.7555
▁#490	-10.7555
▁asleep	-10.7555
▁vacances	-10.7555
▁trente	-10.7555
Anth	-10.7556
▁meilleure	-10.7559
▁Savez	-10.7561
half	-10.7575
▁New	-10.7576
▁manque	-10.758
▁bag	-10.7599
▁#2642	-10.7609
▁weekend	-10.7613
▁plane	-10.7614
▁étudier	-10.7621
▁Comme	-10.7624
▁bring	-10.7625
▁pen	-10.763
▁#11400	-10.7636
▁Me	-10.7638
▁clé	-10.7639
Qu	-10.764
ond	-10.7641
Australie	-10.7662
▁#613	-10.7662
▁contact	-10.7662
▁street	-10.7662
▁chapeau	-10.7662
▁cup	-10.7668
▁cri	-10.7669
▁spent	-10.7672
▁payé	-10.7676
ship	-10.7678
▁droit	-10.7684
▁prend	-10.7694
go	-10.7702
Sus	-10.7708
▁#615	-10.771
▁#600	-10.7711
1921	-10.7713
▁#3330	-10.7717
▁souviens	-10.7717
▁projet	-10.7717
▁feeling	-10.7718
▁scared	-10.7721
▁hotel	-10.7721
▁wearing	-10.7722
▁roman	-10.7724
▁guy	-10.7731
▁court	-10.7731
▁thank	-10.7734
▁#1348	-10.7735
▁invité	-10.7756
▁souhaite	-10.7765
▁grow	-10.7766
▁correct	-10.777
▁drunk	-10.7771
▁#2954	-10.7771
▁which	-10.7771
▁#8874	-10.7786
▁quiet	-10.7791
▁sun	-10.7794
▁#18417	-10.7798
▁tour	-10.78
▁#439	-10.7826
▁utiliser	-10.7826
▁bois	-10.7826
of	-10.7829
▁poser	-10.784
▁ticket	-10.7846
▁Ton	-10.7851
▁canno	-10.7856
tin	-10.787
▁#3151	-10.788
▁expensive	-10.788
▁milk	-10.7881
▁poisson	-10.7884
rock	-10.7894
602	-10.7912
▁#2326	-10.7916
▁garder	-10.7919
▁cuisine	-10.7923
hima	-10.7923
▁everybody	-10.7936
▁sport	-10.7936
▁join	-10.7936
▁cake	-10.7936
▁river	-10.7936
▁prefer	-10.7936
▁robe	-10.7937
▁kids	-10.7938
▁wear	-10.7945
▁#1365	-10.7951
▁parc	-10.7952
ating	-10.7968
254	-10.797
▁Arrête	-10.7986
anniversaire	-10.7991
▁satisfait	-10.7991
▁began	-10.7991
▁death	-10.7992
▁then	-10.7992
▁font	-10.7993
▁At	-10.7995
▁mesure	-10.7995
▁lucky	-10.7998
▁test	-10.8002
▁rapport	-10.8004
▁#21631	-10.8013
cy	-10.8028
phil	-10.8033
▁#2544	-10.8035
▁lived	-10.8039
▁#7839	-10.8044
hôpital	-10.8047
▁became	-10.8047
▁#808	-10.8047
Del	-10.8056
▁lait	-10.8058
Shi	-10.8061
▁whe	-10.8069
apou	-10.8078
▁mari	-10.8082
▁accept	-10.8092
▁Donne	-10.8093
hir	-10.8097
▁cherche	-10.8099
▁#805	-10.8103
▁terrible	-10.8103
▁worried	-10.8103
▁building	-10.8104
▁tall	-10.8107
▁whole	-10.8122
per	-10.8128
▁goes	-10.8129
▁ordinateur	-10.8137
impression	-10.8157
▁boss	-10.8161
Suisse	-10.8161
▁sou	-10.8205
▁réussi	-10.8216
▁#1815	-10.8217
▁#510	-10.8217
▁devant	-10.8217
▁Try	-10.8219
▁allée	-10.8227
▁prends	-10.8253
▁#23961	-10.8254
née	-10.8257
▁absent	-10.8258
▁heart	-10.8263
▁conseil	-10.8265
▁#396	-10.8274
▁#611	-10.8274
▁birthday	-10.8274
acheter	-10.8297
▁Par	-10.8304
▁sort	-10.8308
▁changed	-10.8313
▁#692	-10.8318
▁#708	-10.8331
occasion	-10.8331
▁Aucun	-10.8331
▁noir	-10.8335
▁faute	-10.8335
000	-10.8336
shi	-10.8337
▁bras	-10.8347
oth	-10.8347
▁#1849	-10.8347
▁leg	-10.8372
▁#37319	-10.8387
▁#443	-10.8389
▁#2953	-10.8389
▁#492	-10.8389
▁smoke	-10.8389
▁cassé	-10.8391
▁Soy	-10.8396
▁studying	-10.8401
cent	-10.8409
▁ob	-10.8414
▁Thank	-10.8416
ze	-10.8417
ière	-10.8422
▁fat	-10.8425
▁Was	-10.8431
▁refuse	-10.8435
▁#405	-10.8447
▁#569	-10.8447
▁Sunday	-10.8447
▁solve	-10.8448
▁others	-10.8449
blue	-10.8451
▁ignor	-10.8452
▁#22457	-10.8453
val	-10.8455
▁#637	-10.8506
▁apologize	-10.8506
▁between	-10.8506
▁count	-10.8509
▁pleurer	-10.851
▁cro	-10.851
▁#1350	-10.8512
▁bl	-10.8512
▁killed	-10.8514
ouvrir	-10.8528
▁comes	-10.8539
▁intéressant	-10.8544
tofu	-10.8547
▁strange	-10.8557
▁borrow	-10.8564
▁#410	-10.8565
▁excuses	-10.8565
▁guerre	-10.8565
▁plaisir	-10.8565
▁begin	-10.8565
▁enseignant	-10.8566
▁sentiment	-10.8568
▁worth	-10.857
▁#8869	-10.8581
▁closed	-10.8592
▁Fi	-10.8606
▁#578	-10.861
▁#655	-10.8612
▁#9533	-10.8614
▁rire	-10.862
▁#389	-10.8624
▁nombreuses	-10.8624
▁success	-10.8624
▁veulent	-10.8624
assi	-10.8624
▁prudent	-10.866
▁#1313	-10.8665
▁#402	-10.8683
ase	-10.8687
ki	-10.869
▁pluie	-10.8691
▁faisait	-10.8693
▁case	-10.8717
▁venue	-10.8721
255	-10.8721
▁regard	-10.8726
▁gentil	-10.8731
▁travel	-10.8737
▁ressemble	-10.8737
▁terre	-10.8739
699	-10.874
▁#514	-10.8743
▁wrote	-10.8743
edict	-10.8743
▁marché	-10.8746
▁#9095	-10.8759
ton	-10.8768
▁affaires	-10.8774
▁helped	-10.8777
▁Aime	-10.8797
▁war	-10.8802
▁Am	-10.8803
▁#2404	-10.8803
▁stopped	-10.8804
kins	-10.8804
▁arrêter	-10.8805
por	-10.8817
▁#8870	-10.8819
▁marié	-10.8849
▁fine	-10.8854
▁#619	-10.8864
▁Everything	-10.8864
▁Many	-10.8864
▁crime	-10.8876
▁happening	-10.8882
entendre	-10.8886
180	-10.8893
▁#706	-10.8894
▁problems	-10.8904
▁mistakes	-10.8908
arrêt	-10.8908
332	-10.8923
▁#505	-10.8925
▁dimanche	-10.8925
▁normal	-10.8925
▁vêtements	-10.8925
▁upset	-10.8925
▁joke	-10.8925
▁finir	-10.8929
▁figured	-10.8936
Roi	-10.8937
▁#37316	-10.8937
rie	-10.8963
▁#1328	-10.8977
▁talked	-10.8986
▁jardin	-10.8986
▁soleil	-10.8986
azel	-10.8987
▁dangerous	-10.8987
▁future	-10.8988
▁étudiants	-10.8993
▁words	-10.8994
▁missed	-10.8998
Pai	-10.8999
▁demanda	-10.9009
▁One	-10.9018
▁#19701	-10.9027
▁entrer	-10.9033
268	-10.9037
▁kiss	-10.9041
▁#630	-10.9042
iper	-10.9043
▁Se	-10.9043
▁sense	-10.9046
▁#2576	-10.9048
▁smoking	-10.9048
▁suffisamment	-10.9048
▁along	-10.9048
▁super	-10.9049
Sibe	-10.9051
ian	-10.9059
▁coat	-10.9062
raw	-10.9075
▁resté	-10.9089
essaie	-10.9096
yph	-10.9097
▁move	-10.9098
pan	-10.9105
▁#1292	-10.911
▁#403	-10.911
▁dictionnaire	-10.911
▁impatient	-10.911
▁compris	-10.911
▁talent	-10.911
lius	-10.9114
▁grosse	-10.9114
▁forward	-10.9119
▁worked	-10.912
ling	-10.9123
▁takes	-10.9127
ng	-10.913
attends	-10.9138
▁connaît	-10.915
▁perfect	-10.917
▁désormais	-10.9173
▁moindre	-10.9173
▁censé	-10.9173
▁fond	-10.9173
▁mourir	-10.9173
▁plage	-10.9174
▁telle	-10.9178
▁star	-10.9182
▁affaire	-10.9189
▁#8871	-10.9189
expliquer	-10.919
▁dormi	-10.9196
▁speaking	-10.9201
▁mots	-10.9203
essayer	-10.9205
▁#729	-10.9223
▁discuss	-10.9231
▁#713	-10.9235
▁changé	-10.9235
▁liked	-10.9238
▁allowed	-10.924
▁quiconque	-10.924
▁tasse	-10.9242
▁beach	-10.9247
phi	-10.9256
▁#735	-10.9266
▁fera	-10.9271
vis	-10.9273
▁garden	-10.9283
▁regret	-10.9286
100	-10.9287
▁filles	-10.9297
oooo	-10.9299
▁address	-10.9299
▁quatre	-10.9299
▁manteau	-10.93
▁fatiguée	-10.9305
▁expected	-10.9308
▁#1349	-10.9318
▁donc	-10.9331
cha	-10.9344
ness	-10.9347
▁suggest	-10.9349
▁clear	-10.936
▁#2376	-10.9362
▁#507	-10.9362
▁thirty	-10.9362
itero	-10.9367
▁devenu	-10.9369
wi	-10.937
imagine	-10.9393
▁#23960	-10.9405
▁marche	-10.9408
ord	-10.9413
600	-10.9414
▁warm	-10.9422
▁#2952	-10.9427
▁John	-10.9427
▁dictionary	-10.9427
▁résoudre	-10.9427
▁repas	-10.9427
278	-10.9428
▁voisin	-10.9438
▁teach	-10.9443
▁evening	-10.9445
▁ski	-10.9446
▁liste	-10.9448
▁#1354	-10.947
▁#6843	-10.947
▁volé	-10.9472
▁lis	-10.9472
▁health	-10.9483
▁complain	-10.9485
▁sell	-10.9489
▁#3181	-10.9491
▁#703	-10.9491
▁rivière	-10.9491
▁supposé	-10.9491
▁Lorsqu	-10.9491
▁furent	-10.9491
▁black	-10.9492
▁bat	-10.9493
tru	-10.9523
étudiant	-10.9528
▁pied	-10.9533
▁speaks	-10.9542
▁exp	-10.9546
▁dérange	-10.9556
▁#547	-10.9556
▁#697	-10.9556
▁#3200	-10.9556
▁piece	-10.9557
▁#8875	-10.9576
▁sache	-10.9589
avis	-10.9589
123	-10.9596
ight	-10.9606
étudie	-10.9613
▁amies	-10.9616
wit	-10.9618
▁#1846	-10.9619
▁#473	-10.9621
▁#6821	-10.9621
▁condition	-10.9621
▁necessary	-10.9621
▁succeed	-10.9621
▁running	-10.9621
▁Prends	-10.9621
avaient	-10.9622
▁price	-10.9623
histoire	-10.9628
▁bar	-10.9629
▁#25448	-10.963
▁Ta	-10.9635
▁né	-10.9636
▁#8872	-10.964
▁walked	-10.9643
attend	-10.9661
▁direct	-10.968
▁porter	-10.9682
▁parfait	-10.9687
▁#390	-10.9687
▁#420	-10.9687
▁#525	-10.9687
▁Certain	-10.9687
▁patron	-10.9687
▁noise	-10.969
▁#330	-10.9693
▁waste	-10.9693
écrire	-10.9699
▁vaut	-10.97
amour	-10.9701
▁#23262	-10.9711
odin	-10.9713
▁broken	-10.9715
391)	-10.9718
▁plans	-10.9728
▁photos	-10.973
écouter	-10.9735
▁#22889	-10.9736
fr	-10.974
▁Des	-10.9743
▁Christmas	-10.9753
▁autorisé	-10.9753
▁solution	-10.9753
▁blame	-10.9756
▁American	-10.9764
▁doute	-10.9771
▁#1311	-10.9789
▁#769	-10.982
▁Rien	-10.982
▁réparer	-10.982
▁village	-10.982
Mouse	-10.982
▁reconnaissant	-10.982
▁Someone	-10.982
▁hold	-10.982
▁road	-10.9821
▁match	-10.9821
▁longue	-10.9826
▁list	-10.9856
▁#11401	-10.9857
▁#20259	-10.9865
▁horse	-10.9871
▁#1841	-10.9875
▁Here	-10.9876
▁known	-10.9877
▁Quelque	-10.9884
occuper	-10.9886
article	-10.9887
▁#1808	-10.9887
▁famous	-10.9887
▁least	-10.9889
▁disappointed	-10.9889
adresse	-10.989
aise	-10.9892
▁fleurs	-10.9892
ward	-10.9902
▁camera	-10.9902
timent	-10.9902
▁années	-10.9904
▁perd	-10.9921
▁#807	-10.9931
▁quitter	-10.9935
aviez	-10.995
▁#498	-10.9955
▁environ	-10.9955
▁novel	-10.9957
rust	-10.997
▁guitar	-10.9975
▁#37292	-10.9977
▁So	-10.9985
▁half	-10.9998
▁ate	-11.0006
▁fonctionne	-11.001
▁#606	-11.0011
▁habit	-11.0019
▁mit	-11.002
adjust	-11.0023
▁#494	-11.0023
▁#766	-11.0023
▁#772	-11.0023
▁poor	-11.0027
oublie	-11.0037
▁realize	-11.006
math	-11.0065
▁bill	-11.0068
uly	-11.0082
▁#609	-11.0091
▁#2527	-11.0091
▁completely	-11.0092
▁risk	-11.0094
fant	-11.0094
▁mad	-11.0095
▁étrange	-11.0097
▁#1844	-11.0098
char	-11.01
▁#37305	-11.0102
809	-11.0108
▁proche	-11.0108
▁#1337	-11.0113
▁happens	-11.0121
▁chiens	-11.0121
▁ceux	-11.0123
▁side	-11.0134
▁To	-11.0137
▁treat	-11.0139
bra	-11.0143
▁#9534	-11.0143
▁#9535	-11.0143
259	-11.015
▁#446	-11.016
▁#513	-11.016
▁#522	-11.016
▁#551	-11.016
▁#571	-11.016
▁#658	-11.016
▁bizarre	-11.016
▁written	-11.016
▁#386	-11.016
▁#428	-11.016
▁smell	-11.016
▁chair	-11.0166
▁aidé	-11.017
▁Allez	-11.0173
▁couple	-11.0179
▁#2547	-11.0186
aies	-11.0192
158	-11.0199
io	-11.0201
ries	-11.0203
▁rentré	-11.0219
prit	-11.0225
▁Were	-11.0227
▁continue	-11.0227
▁#383	-11.023
▁succès	-11.023
▁jeu	-11.023
▁bateau	-11.0231
▁#20168	-11.0234
▁ouvert	-11.024
▁seeing	-11.0249
▁drinking	-11.0256
680	-11.0262
▁sc	-11.0267
ches	-11.0282
▁#1336	-11.0286
▁follow	-11.0286
▁Regarde	-11.0294
expérience	-11.03
▁veuille	-11.03
▁déçu	-11.03
▁feriez	-11.03
▁risque	-11.03
attraper	-11.0302
▁#7811	-11.0302
tant	-11.0308
▁Ses	-11.0311
586	-11.0311
▁ravi	-11.0311
▁vent	-11.0316
▁bother	-11.0317
▁sang	-11.0319
▁suite	-11.0324
rée	-11.0325
kio	-11.0328
▁Thanks	-11.0337
▁dogs	-11.0343
ean	-11.0345
▁#18394	-11.0346
▁devoir	-11.0352
ouille	-11.0359
▁#654	-11.0364
▁#1276	-11.0369
▁papier	-11.037
▁weight	-11.0386
▁#22760	-11.0411
▁regardé	-11.0413
597	-11.0414
▁dirai	-11.0422
▁#1308	-11.0424
▁#1329	-11.0425
▁Te	-11.0427
184	-11.0429
▁#1287	-11.0441
▁#493	-11.0441
▁actually	-11.0441
▁crying	-11.0446
lke	-11.0459
attendre	-11.0467
▁hommes	-11.0481
ray	-11.0482
▁tombé	-11.0489
loe	-11.0491
▁tableau	-11.0497
▁#552	-11.0501
toile	-11.0505
▁#691	-11.0507
▁#2421	-11.0512
▁poids	-11.0512
▁somewhere	-11.0512
▁avocat	-11.0512
▁swimming	-11.0512
▁floor	-11.0513
▁owe	-11.0518
▁bord	-11.0519
▁Donnez	-11.0519
▁équipe	-11.0529
▁#21119	-11.0543
▁certaine	-11.0545
bond	-11.0545
675	-11.0554
ory	-11.0556
▁#1318	-11.0557
▁sé	-11.0559
the	-11.0569
Europe	-11.0584
▁#1286	-11.0584
▁bibliothèque	-11.0584
▁leaving	-11.0584
▁permission	-11.0584
hu	-11.0584
human	-11.0585
▁Prenez	-11.0585
▁Paris	-11.0588
cfr	-11.0589
▁#37307	-11.0591
awa	-11.06
petit	-11.06
▁#8873	-11.0605
598	-11.0634
▁rules	-11.0636
▁#2420	-11.0639
▁gets	-11.0641
ink	-11.0641
756	-11.0646
▁chante	-11.0646
Sis	-11.0648
▁#639	-11.0651
▁#584	-11.0657
▁#678	-11.0657
▁Stay	-11.0657
▁husband	-11.0657
▁bank	-11.0657
Little	-11.0657
▁loves	-11.0659
▁dangereux	-11.066
609	-11.0665
▁calme	-11.0679
▁taken	-11.068
▁flowers	-11.0683
▁haut	-11.0694
▁#23621	-11.0698
▁règles	-11.0702
Sno	-11.0719
▁consider	-11.0722
▁luck	-11.0727
erra	-11.0729
▁#448	-11.073
▁#588	-11.073
▁#665	-11.073
▁parapluie	-11.073
▁umbrella	-11.073
▁writing	-11.073
▁plupart	-11.073
▁York	-11.073
▁triste	-11.073
▁amoureux	-11.073
▁Dans	-11.0737
▁#1315	-11.0745
▁#2402	-11.0745
▁learned	-11.0749
▁attendu	-11.0754
▁#20925	-11.0774
autres	-11.0789
▁glass	-11.0797
eople	-11.0802
▁#1353	-11.0803
entreprise	-11.0803
▁#437	-11.0803
▁#504	-11.0803
▁#677	-11.0803
▁alive	-11.0805
nes	-11.084
▁sale	-11.0857
amp	-11.0861
▁#1312	-11.0862
▁#1306	-11.0865
▁#1291	-11.0877
▁lawyer	-11.0877
▁library	-11.0877
▁shopping	-11.0877
▁telephone	-11.0877
▁distance	-11.0877
▁honest	-11.0877
▁nature	-11.0879
▁painting	-11.0882
▁uncle	-11.0889
▁#37303	-11.089
ken	-11.0922
▁ride	-11.0923
▁#23908	-11.0929
ront	-11.0936
▁#622	-11.0944
▁sad	-11.0944
▁seconde	-11.0947
755	-11.095
▁#23230	-11.0952
▁#617	-11.0952
▁#723	-11.0952
▁proposition	-11.0952
▁color	-11.0952
▁pauvre	-11.0952
▁#20169	-11.0954
▁#3312	-11.0954
Max	-11.0954
Boy	-11.0961
▁coin	-11.0962
▁sommeil	-11.0966
ush	-11.0974
▁#10964	-11.1001
▁form	-11.1016
▁#3141	-11.1027
▁#716	-11.1027
▁convaincu	-11.1027
▁endormi	-11.1027
▁pleuvoir	-11.1027
▁recognize	-11.1027
▁réveillé	-11.1027
▁somebody	-11.1027
▁bird	-11.1027
▁autour	-11.1027
RE	-11.1028
▁Après	-11.1028
▁finalement	-11.1028
ix	-11.1029
▁nervous	-11.1031
▁pr	-11.1032
▁#24084	-11.1034
esprit	-11.104
action	-11.104
▁tie	-11.1041
habite	-11.1046
▁#20911	-11.107
▁#1396	-11.1093
list	-11.1096
▁#508	-11.1103
▁#526	-11.1103
▁#599	-11.1103
▁goût	-11.1103
▁sérieux	-11.1103
▁chemise	-11.1103
▁courage	-11.1103
▁Voici	-11.1103
▁shirt	-11.1109
▁rendez	-11.1111
▁#758	-11.1112
▁Now	-11.1124
▁tuer	-11.1125
▁#378	-11.1128
▁loved	-11.1139
how	-11.1143
▁#778	-11.1156
▁suit	-11.116
auriez	-11.1165
300	-11.1179
▁#556	-11.1179
▁lunettes	-11.1179
▁réjouis	-11.1179
▁#3226	-11.1179
▁descend	-11.1179
▁plusieur	-11.1179
▁présenter	-11.1188
CE	-11.1189
▁faisons	-11.1193
▁hors	-11.1198
▁Soi	-11.1198
▁#21117	-11.1199
▁#18605	-11.1202
écoute	-11.1203
▁fermé	-11.1211
292	-11.1212
▁#1390	-11.1222
▁sentir	-11.1246
déjeuner	-11.1247
▁foot	-11.1256
▁fact	-11.1256
▁#3922	-11.1256
▁#770	-11.1256
▁appareil	-11.1256
▁newspaper	-11.1256
▁smile	-11.1256
▁vacation	-11.1258
▁sold	-11.1264
ssem	-11.1266
▁oncle	-11.1274
▁devin	-11.128
▁opened	-11.1283
588	-11.1314
▁pommes	-11.1319
▁moyen	-11.1322
où	-11.1323
und	-11.1324
▁déco	-11.1325
▁smart	-11.1329
▁#380	-11.1334
▁result	-11.1334
▁white	-11.1334
▁blague	-11.1334
▁baseball	-11.1334
▁courant	-11.1335
enfant	-11.1337
attendais	-11.1339
323	-11.1347
she	-11.135
▁set	-11.1351
▁#1345	-11.1357
boy	-11.136
▁#2359	-11.1364
ari	-11.1372
▁rid	-11.1375
nne	-11.1384
722	-11.1385
uma	-11.1397
▁Et	-11.1399
▁#1342	-11.1408
▁donna	-11.141
▁#1445	-11.1412
▁#3168	-11.1412
▁#3668	-11.1412
▁#511	-11.1412
▁envoyé	-11.1412
▁experience	-11.1412
▁amusant	-11.1412
oseph	-11.1412
avance	-11.1412
▁réussir	-11.1414
▁tenir	-11.1417
▁serez	-11.1421
▁listening	-11.1422
▁soup	-11.1425
▁sleeping	-11.1433
▁contente	-11.1436
▁desk	-11.1442
▁#23019	-11.1444
▁danser	-11.1446
▁cru	-11.1449
312	-11.1451
▁femmes	-11.1455
303	-11.1481
entends	-11.1486
inconvénient	-11.1491
▁#415	-11.1491
▁couleur	-11.1491
▁promesse	-11.1491
▁chaise	-11.1491
▁pire	-11.1493
▁#1392	-11.1496
après	-11.1506
tho	-11.1506
▁#44010	-11.1509
▁serve	-11.1511
ong	-11.1511
318	-11.1512
▁#23962	-11.1541
▁#22108	-11.1546
▁sever	-11.1556
▁#702	-11.1559
manu	-11.1564
▁#6817	-11.157
▁Beaucoup	-11.157
▁fault	-11.157
▁speech	-11.157
asseoir	-11.157
▁#1600	-11.157
▁commença	-11.157
▁foreign	-11.157
▁shot	-11.157
PE	-11.1571
▁#20166	-11.1575
486	-11.1576
▁Arrêtez	-11.1577
gle	-11.159
ssé	-11.1594
▁forcé	-11.1594
▁gun	-11.1596
acha	-11.1627
lin	-11.1629
▁figure	-11.1631
▁vieil	-11.1632
▁save	-11.164
▁Pu	-11.1644
▁favor	-11.1649
▁#3142	-11.165
▁banque	-11.165
▁mountain	-11.165
pillon	-11.165
▁Plus	-11.165
▁difference	-11.165
▁deserve	-11.165
▁salle	-11.165
▁mariage	-11.1651
sept	-11.1656
▁service	-11.1657
gh	-11.1692
▁fermer	-11.1705
yes	-11.1709
▁spoke	-11.1715
teur	-11.1722
▁tué	-11.1723
▁#608	-11.1724
arra	-11.1731
▁#3129	-11.1731
▁#601	-11.1731
▁différence	-11.1731
▁medicine	-11.1731
▁Nothing	-11.1731
▁habitué	-11.1731
▁rose	-11.1735
NE	-11.1738
gris	-11.1738
▁mention	-11.1739
▁#22459	-11.1739
▁#23316	-11.1744
▁bal	-11.1748
place	-11.1749
▁course	-11.1751
▁viendra	-11.1773
▁willing	-11.1773
▁#1322	-11.1793
▁laugh	-11.1801
▁guys	-11.1801
432	-11.1801
▁#2429	-11.1812
▁#2640	-11.1812
▁#385	-11.1812
▁Désolé	-11.1812
▁divorce	-11.1812
▁parfois	-11.1812
▁responsable	-11.1812
▁parole	-11.1812
▁suspect	-11.1812
▁girls	-11.1821
▁#23317	-11.1826
▁#18859	-11.1831
▁japonais	-11.1845
▁pull	-11.1849
nju	-11.1854
▁keys	-11.1874
▁#784	-11.1883
169	-11.1889
▁#3658	-11.1894
▁college	-11.1894
▁doubt	-11.1894
▁protect	-11.1894
▁After	-11.1894
▁rappeler	-11.1895
ash	-11.1895
▁coucher	-11.1899
▁#22456	-11.1901
▁#18867	-11.1917
▁#18604	-11.1918
▁yen	-11.1922
▁shower	-11.1927
ateur	-11.1938
▁#2565	-11.194
▁#22761	-11.1942
▁mien	-11.1949
▁#22890	-11.1958
▁pens	-11.1964
▁lac	-11.197
▁#701	-11.1977
espoir	-11.1977
▁#1299	-11.1977
▁#1439	-11.1977
▁#1816	-11.1977
▁#605	-11.1977
▁breath	-11.1977
▁début	-11.1977
▁gagné	-11.1977
▁parviens	-11.1977
▁résultat	-11.1977
▁signifie	-11.1977
▁revenu	-11.1977
▁cheval	-11.1977
▁either	-11.1978
IG	-11.1982
▁durant	-11.1983
▁taille	-11.1988
arpe	-11.1993
▁lend	-11.1999
marc	-11.2007
▁passée	-11.2015
▁#18502	-11.202
iens	-11.2032
445	-11.2035
accepter	-11.2035
197	-11.2039
▁#616	-11.2054
irent	-11.2059
satisfied	-11.206
▁magazine	-11.206
▁belong	-11.206
▁courir	-11.206
▁#18871	-11.2079
▁parlez	-11.2087
▁#36364	-11.2095
▁tend	-11.2099
Ai	-11.2112
▁dirait	-11.2118
▁#20926	-11.2119
193	-11.2132
ième	-11.2144
▁#501	-11.2144
▁#715	-11.2144
▁abroad	-11.2144
▁excellent	-11.2144
▁gift	-11.2144
▁sometimes	-11.2144
▁prepared	-11.2147
899	-11.2152
▁#22474	-11.2153
▁Allons	-11.2154
109	-11.2157
▁préféré	-11.2165
500	-11.2166
éré	-11.2169
aurai	-11.2173
▁conseils	-11.2191
▁lever	-11.2202
▁ill	-11.2209
quel	-11.222
490	-11.222
▁sounds	-11.2221
▁kid	-11.2226
empêcher	-11.2229
▁#438	-11.2229
▁Something	-11.2229
▁admit	-11.2229
▁club	-11.2229
▁pretend	-11.2229
▁conduit	-11.2229
▁shut	-11.2229
▁means	-11.2229
▁camp	-11.2233
▁meal	-11.2237
728	-11.2243
▁garde	-11.2255
▁connaître	-11.2259
▁promised	-11.2262
▁#21872	-11.2271
▁ice	-11.2288
▁#636	-11.2297
▁menti	-11.2297
▁fight	-11.2309
▁voyager	-11.2312
▁boyfriend	-11.2314
▁drôle	-11.2314
▁innocent	-11.2314
▁football	-11.2314
▁cry	-11.232
ary	-11.2321
▁nu	-11.2329
▁cap	-11.233
oli	-11.2331
▁tien	-11.2336
▁#1310	-11.2337
▁#1346	-11.2343
▁prêter	-11.2346
ego	-11.2346
hose	-11.2351
▁fri	-11.2355
▁send	-11.2362
911	-11.2365
may	-11.2366
▁obligé	-11.2383
196	-11.2394
767	-11.2399
▁#1804	-11.24
▁#412	-11.24
intérieur	-11.24
▁#1406	-11.24
▁#1809	-11.24
▁pizza	-11.24
▁recherche	-11.24
▁jambe	-11.24
▁share	-11.24
▁wake	-11.24
▁Garde	-11.24
▁immediately	-11.2401
▁sentence	-11.2401
▁Reste	-11.2402
▁glasses	-11.2407
▁supporter	-11.2411
▁lying	-11.2411
idée	-11.2421
▁morte	-11.2428
▁enter	-11.2433
▁jeunes	-11.2435
cat	-11.2445
▁#23183	-11.2447
▁#19617	-11.2449
▁guitare	-11.2461
▁#1343	-11.2464
▁comprend	-11.2464
▁#20265	-11.2466
utilise	-11.2487
▁#3221	-11.2487
▁#425	-11.2487
▁#1803	-11.2487
▁#3123	-11.2487
▁#3178	-11.2487
▁#5390	-11.2487
▁across	-11.2487
▁douleur	-11.2487
▁persuade	-11.2487
▁tempête	-11.2487
▁allés	-11.2487
▁voix	-11.2487
▁connu	-11.2488
▁cross	-11.249
pit	-11.2495
▁chats	-11.25
▁dressed	-11.2505
ordre	-11.2516
▁waited	-11.2519
▁pieds	-11.252
▁prudente	-11.2521
407	-11.2529
▁garçons	-11.2557
794	-11.2558
▁servi	-11.2566
oudriez	-11.2575
▁#2951	-11.2575
▁#3256	-11.2575
▁contrôle	-11.2575
▁rhume	-11.2575
▁stylo	-11.2575
▁vécu	-11.2575
▁storm	-11.2575
▁apple	-11.2575
▁également	-11.2575
▁golf	-11.2575
▁zoo	-11.2576
liv	-11.2583
▁seriez	-11.2584
ume	-11.259
▁#18866	-11.2598
▁#25449	-11.2599
▁importante	-11.26
▁asking	-11.2612
Ed	-11.2616
lée	-11.2633
▁vend	-11.2633
▁fruit	-11.2663
olivier	-11.2663
▁#2428	-11.2663
▁#441	-11.2663
▁#587	-11.2663
▁#6820	-11.2663
▁#8031	-11.2663
▁afford	-11.2663
▁suivre	-11.2663
▁gauche	-11.2664
▁worse	-11.2665
▁#377	-11.2674
483	-11.2676
▁continuer	-11.2689
kur	-11.2691
▁pictures	-11.2704
▁#221850	-11.271
▁promis	-11.2712
864	-11.2714
tan	-11.272
▁#1304	-11.2737
père	-11.274
▁port	-11.2744
▁wall	-11.2753
▁#1800	-11.2753
▁#612	-11.2753
▁conscience	-11.2753
▁#2589	-11.2753
▁#2955	-11.2753
▁million	-11.2753
▁montagne	-11.2753
▁phrase	-11.2753
▁appear	-11.2753
▁cancer	-11.2753
wood	-11.2754
▁#37314	-11.2758
▁conseillé	-11.2759
▁#20124	-11.2759
▁page	-11.2762
▁carefully	-11.2763
hiver	-11.2767
▁dise	-11.2771
▁#18863	-11.2779
cation	-11.279
▁#36363	-11.2797
▁choisi	-11.2805
▁Mo	-11.2809
▁clés	-11.2812
709	-11.2818
▁préparé	-11.2828
▁mariée	-11.2829
hier	-11.2833
▁total	-11.2834
▁#714	-11.2837
▁#502	-11.2843
▁driving	-11.2843
▁involved	-11.2843
▁tranquille	-11.2843
▁urgent	-11.2843
▁deep	-11.2847
▁#22454	-11.2849
▁marier	-11.2851
195	-11.2857
ative	-11.2862
yja	-11.2863
▁intéressé	-11.2868
▁savons	-11.287
▁post	-11.2873
▁agreed	-11.2877
▁harder	-11.288
104	-11.2883
cons	-11.2887
▁mur	-11.2899
▁#1332	-11.2903
pf	-11.2906
cris	-11.292
▁dispos	-11.2928
dedans	-11.2934
▁special	-11.2934
▁inside	-11.2934
ignorais	-11.2935
▁loud	-11.2936
▁cute	-11.2944
287	-11.2945
▁Toute	-11.2948
▁whatever	-11.2951
▁bleu	-11.2952
952	-11.2956
181	-11.2965
▁#1335	-11.297
▁tel	-11.2971
▁given	-11.2982
▁#23882	-11.2993
eva	-11.2994
ufs	-11.3003
▁#1302	-11.3006
tab	-11.3014
▁poli	-11.3014
▁repos	-11.3021
▁honnête	-11.3021
▁#5399	-11.3026
▁relax	-11.3026
christian	-11.3026
▁quelconque	-11.3026
▁viande	-11.3026
▁choose	-11.3027
▁nourri	-11.3027
though	-11.3029
ker	-11.303
▁couru	-11.3042
▁#2443	-11.3059
invent	-11.3066
430	-11.3072
▁#2403	-11.3072
ana	-11.3076
▁#18493	-11.3092
▁calm	-11.3108
iconque	-11.3111
▁#37318	-11.3111
▁#1811	-11.3118
▁Sorry	-11.3118
▁animaux	-11.3118
▁shop	-11.3118
▁sucre	-11.3118
Rasp	-11.3118
oreille	-11.3118
▁honte	-11.3119
▁douche	-11.3122
▁discussion	-11.3125
▁réfléchir	-11.3133
▁soirée	-11.3138
▁#18875	-11.3143
▁seras	-11.3145
▁regarda	-11.3148
▁prom	-11.3153
▁groupe	-11.3161
▁#23152	-11.3165
▁#2447	-11.3166
West	-11.317
▁mail	-11.3184
▁#2594	-11.3212
▁#3413	-11.3212
▁Kyoto	-11.3212
▁bottle	-11.3212
▁remain	-11.3212
▁valise	-11.3212
▁weird	-11.3212
rauli	-11.3213
▁push	-11.3214
kil	-11.3214
▁mienne	-11.3217
209	-11.322
▁nombre	-11.3225
vec	-11.3227
ément	-11.3227
way	-11.3228
▁gentille	-11.3231
▁#18874	-11.3234
▁raining	-11.3238
▁rang	-11.3239
166	-11.3245
205	-11.3248
▁fired	-11.3251
rain	-11.3252
▁mérite	-11.3252
▁#3260	-11.3252
▁#22740	-11.3271
▁#1352	-11.3272
ither	-11.3274
▁#19508	-11.3282
898	-11.329
▁#965	-11.3306
Amérique	-11.3306
▁#1813	-11.3306
▁#3150	-11.3306
▁médicament	-11.3306
▁souvenir	-11.3306
▁traffic	-11.3306
▁discours	-11.3306
▁jolie	-11.3306
▁suivi	-11.3306
obez	-11.3307
643	-11.3307
▁congé	-11.3309
▁facilement	-11.3313
210	-11.332
▁Per	-11.3322
▁sub	-11.3326
▁#9038	-11.3333
entend	-11.3336
▁gagne	-11.3345
Ga	-11.3353
016	-11.3357
▁#2401	-11.3358
▁#2426	-11.3367
▁#1327	-11.337
839	-11.3374
▁compter	-11.3379
▁#19518	-11.338
rin	-11.3381
▁propres	-11.3382
isé	-11.339
entretenir	-11.3401
▁#1280	-11.3401
▁#3655	-11.3401
▁easily	-11.3401
▁slept	-11.3401
▁throw	-11.3401
▁women	-11.3401
▁Venez	-11.3401
▁précis	-11.3401
▁travaillé	-11.3407
904	-11.341
▁laissez	-11.3413
▁couch	-11.3414
▁#1409	-11.3429
▁retourner	-11.3429
▁Cha	-11.3431
▁sympa	-11.3435
▁#1331	-11.3445
▁#20954	-11.345
▁movies	-11.3468
▁scar	-11.347
▁#10963	-11.3475
▁bonnes	-11.3479
employ	-11.3489
888	-11.3492
▁ferme	-11.3494
▁blanc	-11.3497
intéresse	-11.3497
▁#1440	-11.3497
▁#3660	-11.3497
▁#607	-11.3497
▁lève	-11.3497
▁twice	-11.3497
▁#718	-11.3497
▁control	-11.3497
▁trompe	-11.3497
▁cousin	-11.3498
▁clair	-11.3499
▁Turn	-11.3499
▁Restez	-11.3503
▁carry	-11.3504
▁eye	-11.3507
▁retire	-11.351
▁lequel	-11.352
▁seven	-11.352
▁#4533	-11.3542
▁#20345	-11.3551
taste	-11.3551
▁erreurs	-11.3559
200	-11.3559
▁#1363	-11.3567
old	-11.3569
▁passed	-11.3571
▁loi	-11.3573
▁Ser	-11.3574
▁America	-11.3579
▁decide	-11.3582
student	-11.3593
Thom	-11.3594
▁#3131	-11.3594
▁#727	-11.3594
▁#1408	-11.3594
▁#3154	-11.3594
▁#3172	-11.3594
▁conversation	-11.3594
▁moitié	-11.3594
astasi	-11.3594
elgra	-11.3594
▁Bien	-11.3596
620	-11.3597
isu	-11.3599
atastr	-11.3602
▁mour	-11.3616
589	-11.3635
▁staying	-11.3637
▁#22028	-11.3648
▁fallu	-11.3651
▁tenu	-11.3664
484	-11.3665
▁Parle	-11.3668
410	-11.367
arlon	-11.3677
301	-11.3681
▁blessée	-11.3681
can	-11.3689
▁#2649	-11.3692
▁#1284	-11.3692
▁#1818	-11.3692
▁earlier	-11.3692
▁empty	-11.3692
▁mensonge	-11.3692
▁spécial	-11.3692
▁television	-11.3692
▁permis	-11.3692
▁emprunter	-11.3693
▁held	-11.3693
▁liar	-11.3693
importance	-11.3693
▁visage	-11.3695
▁aimes	-11.3705
▁pick	-11.371
▁#41983	-11.3714
208	-11.3719
▁#37302	-11.3727
Fre	-11.3729
211	-11.3734
▁nage	-11.3736
▁#749	-11.3744
203	-11.3744
▁fil	-11.375
751	-11.3753
▁Va	-11.3757
▁#23802	-11.3758
621	-11.3769
202	-11.3783
▁#37320	-11.3788
▁#1281	-11.3791
▁#1283	-11.3791
▁#2444	-11.3791
▁#3185	-11.3791
▁docteur	-11.3791
▁introduce	-11.3791
▁vivent	-11.3791
aimait	-11.3792
ennemi	-11.3793
▁montré	-11.3793
▁apprécié	-11.3794
▁impressionné	-11.3796
▁Regardez	-11.3799
▁kissed	-11.3804
▁ahead	-11.3809
▁#18860	-11.3815
▁Isn	-11.3836
▁played	-11.384
oublier	-11.3841
▁#1275	-11.386
199	-11.3861
▁soucie	-11.3871
▁#37312	-11.3886
▁discut	-11.3887
spect	-11.389
▁#1438	-11.3891
▁#2958	-11.3891
▁#3417	-11.3891
▁anywhere	-11.3891
▁climb	-11.3891
▁célèbre	-11.3891
▁effrayé	-11.3891
▁sandwich	-11.3891
▁vouliez	-11.3891
▁stuff	-11.3891
▁Viens	-11.3892
fleur	-11.3892
▁Even	-11.3893
▁ciel	-11.3895
▁#20429	-11.3897
▁#77860	-11.3899
▁couteau	-11.3899
▁dents	-11.3902
▁avions	-11.3909
389	-11.3913
zm	-11.392
455	-11.3923
▁support	-11.3926
auff	-11.3929
276	-11.3934
fc	-11.394
309	-11.3941
▁#22033	-11.3952
▁lake	-11.3961
▁cruel	-11.3971
tom	-11.3977
accus	-11.3982
▁Suis	-11.399
lar	-11.399
▁semaines	-11.399
▁#737	-11.3991
▁commun	-11.3992
▁peint	-11.3992
▁#512	-11.3992
▁German	-11.3992
▁bouteille	-11.3992
▁pleut	-11.3992
▁#3333	-11.3992
▁Voudra	-11.3992
▁utile	-11.3993
▁boat	-11.3993
board	-11.3995
771	-11.3997
rvus	-11.4
hunt	-11.4004
gée	-11.4011
cori	-11.4012
▁refused	-11.4014
alon	-11.4018
▁driver	-11.402
affaire	-11.4025
▁#629	-11.4039
▁likely	-11.4054
▁Passe	-11.4056
mettez	-11.4056
▁#1334	-11.4064
▁#20258	-11.4067
arriver	-11.407
▁ouverte	-11.4081
870	-11.4082
▁concern	-11.4087
▁boys	-11.4094
▁#2956	-11.4094
▁#3171	-11.4094
▁#711	-11.4094
▁Maintenant	-11.4094
▁reconnu	-11.4094
▁contrarié	-11.4094
▁herself	-11.4094
▁détail	-11.4095
▁marry	-11.4095
▁trans	-11.4095
▁wonderful	-11.4096
▁décider	-11.4096
▁billet	-11.4096
ib	-11.41
▁followed	-11.4106
aji	-11.4106
▁meat	-11.4106
▁#22449	-11.4107
ancien	-11.4108
▁manqué	-11.4109
tats	-11.4109
▁direction	-11.4114
185	-11.4115
313	-11.4115
▁#21113	-11.4118
▁#18872	-11.412
▁#23227	-11.4121
▁tombée	-11.4128
ack	-11.4135
was	-11.414
▁#2427	-11.4157
▁balle	-11.4162
189	-11.4166
▁plat	-11.4168
▁connaisse	-11.4171
aéroport	-11.4198
▁#1288	-11.4198
▁#1290	-11.4198
▁#2590	-11.4198
▁#610	-11.4198
▁copine	-11.4198
▁heavy	-11.4198
▁injured	-11.4198
▁élevé	-11.4198
▁grave	-11.4198
▁horrible	-11.4198
université	-11.4198
▁rapide	-11.4201
AP	-11.4203
▁drank	-11.4204
▁laughed	-11.4207
▁#22407	-11.4209
883	-11.4223
▁#18873	-11.4224
▁#4775	-11.4228
▁fly	-11.4237
▁lied	-11.4239
allais	-11.4245
▁#19364	-11.4249
▁younger	-11.4254
▁pack	-11.4259
593	-11.4262
▁personal	-11.427
▁vienne	-11.4284
▁tire	-11.4294
chant	-11.4296
▁fool	-11.4301
▁Every	-11.4302
▁#3202	-11.4302
kitten	-11.4302
▁#503	-11.4302
▁Should	-11.4302
▁hundred	-11.4302
▁maladie	-11.4302
▁population	-11.4302
▁prévu	-11.4302
▁beginning	-11.4302
▁document	-11.4302
avenir	-11.4302
▁also	-11.4302
▁remercier	-11.4304
▁quitté	-11.4306
▁Hier	-11.4306
▁levé	-11.4307
envers	-11.4309
495	-11.4312
▁#24068	-11.4325
▁#22406	-11.4329
mère	-11.4334
▁ligne	-11.4344
▁#15534	-11.4345
▁choisir	-11.4347
▁#19365	-11.4358
▁#1848	-11.436
▁exam	-11.4364
▁#2377	-11.4374
Lan	-11.438
▁#1446	-11.4386
habitue	-11.4386
▁lock	-11.44
▁#3657	-11.4407
▁nettoyer	-11.4407
▁cravate	-11.4407
▁rarement	-11.4407
▁forme	-11.4414
908	-11.4416
suppl	-11.4417
▁fishing	-11.4419
▁cooking	-11.4419
▁#64559	-11.4421
▁singing	-11.4424
ked	-11.4429
561	-11.443
▁Vo	-11.4436
▁semblez	-11.4442
▁#36362	-11.4448
oppos	-11.446
▁#22034	-11.4464
▁#14622	-11.447
▁ferait	-11.4513
inquiète	-11.4513
▁#698	-11.4513
▁chouette	-11.4513
▁plenty	-11.4513
▁société	-11.4513
▁fiche	-11.4515
▁rends	-11.4516
▁bain	-11.4517
▁#13930	-11.4517
▁winter	-11.4518
▁failed	-11.4519
▁painted	-11.4521
▁souhait	-11.4523
▁#77909	-11.4531
▁#16904	-11.4541
▁file	-11.4546
▁#18606	-11.4547
lant	-11.4552
▁#64612	-11.4555
▁forte	-11.4558
206	-11.4578
Dan	-11.4578
▁#35940	-11.458
▁#2509	-11.4583
▁trou	-11.4585
▁animals	-11.4589
788	-11.4596
liu	-11.4608
col	-11.4612
▁depend	-11.4613
135	-11.4616
▁#1298	-11.4621
▁#2424	-11.4621
▁#3024	-11.4621
▁#444	-11.4621
extérieur	-11.4621
obtenir	-11.4621
▁#3204	-11.4621
▁airport	-11.4621
▁frappé	-11.4621
▁holiday	-11.4621
▁capital	-11.4621
▁remind	-11.4621
▁voice	-11.4621
▁crains	-11.4621
Unis	-11.4622
▁Quoi	-11.4624
▁vérifier	-11.4624
▁attrapé	-11.4625
▁traite	-11.4626
▁#24516	-11.4626
auto	-11.4627
ymna	-11.4635
▁moved	-11.4643
embrasser	-11.4644
▁pair	-11.4646
▁#48788	-11.4653
ouvre	-11.4655
aurait	-11.4664
▁hid	-11.4674
813	-11.468
▁signe	-11.4698
▁amusé	-11.4703
▁sourire	-11.472
▁#1449	-11.473
▁possède	-11.473
▁suitcase	-11.473
▁welcome	-11.473
▁Dieu	-11.473
ennuis	-11.473
▁built	-11.473
▁option	-11.473
▁accused	-11.473
▁2:30	-11.4731
▁bouton	-11.4733
▁confide	-11.4734
▁certainement	-11.4735
▁laughing	-11.4738
183	-11.474
▁sight	-11.4741
▁pomme	-11.475
▁walking	-11.4758
▁seemed	-11.476
587	-11.4761
▁wind	-11.4766
107	-11.4766
803	-11.4774
▁#5707	-11.4789
949	-11.4795
ited	-11.4798
▁#1326	-11.4819
tribu	-11.4835
▁#1370	-11.4837
▁#3023	-11.4839
▁#3252	-11.4839
▁#3996	-11.4839
▁incroyable	-11.4839
▁impressed	-11.484
▁privé	-11.484
▁sky	-11.484
▁Leave	-11.484
▁battre	-11.4841
▁Wait	-11.4841
▁#77697	-11.4851
ood	-11.4852
▁#59391	-11.4861
▁#77939	-11.4862
▁#63220	-11.4863
423	-11.4864
▁#18861	-11.4866
▁cuisiner	-11.4866
▁#18876	-11.4868
▁rencontre	-11.4879
421	-11.4903
411	-11.4903
887	-11.4909
▁#22026	-11.4914
▁#19509	-11.4918
▁For	-11.4918
ombre	-11.4927
▁press	-11.4939
▁#375	-11.4943
▁product	-11.4943
▁#1403	-11.4951
▁#2567	-11.4951
▁#768	-11.4951
▁earth	-11.4951
▁#78627	-11.4951
▁fière	-11.4951
apprendre	-11.4952
▁partout	-11.4954
ryan	-11.4956
ecom	-11.4964
▁cré	-11.4966
473	-11.4966
▁#55350	-11.4967
gré	-11.4968
▁bath	-11.497
▁soul	-11.4992
901	-11.4993
▁#17239	-11.4998
871	-11.5
▁#22032	-11.5014
▁paie	-11.5061
▁#1812	-11.5063
▁#6812	-11.5063
▁conduis	-11.5063
▁gérer	-11.5063
▁knife	-11.5063
▁obtenu	-11.5063
▁glace	-11.5063
▁jealous	-11.5063
▁bienvenu	-11.5063
▁sitting	-11.5064
▁répondu	-11.5065
▁ruin	-11.5069
▁seriously	-11.5069
ah	-11.5071
▁convinced	-11.5072
▁allow	-11.5083
599	-11.5084
▁#69475	-11.5087
▁#21116	-11.509
▁step	-11.5093
▁gas	-11.5093
▁#8471	-11.5098
guis	-11.5106
659	-11.5124
585	-11.5143
semblait	-11.5156
▁#9536	-11.5156
111	-11.5163
▁Ha	-11.5167
▁dépend	-11.517
▁#1295	-11.5177
▁découvert	-11.5177
▁explication	-11.5177
▁faveur	-11.5177
▁grandfather	-11.5177
▁pratique	-11.5177
▁project	-11.5177
▁promenade	-11.5177
▁revenir	-11.5177
▁étudié	-11.5177
▁repair	-11.5177
▁vivant	-11.5177
▁planning	-11.5177
▁#64024	-11.5177
▁gotten	-11.5177
▁eight	-11.5179
oiseau	-11.5179
▁aware	-11.5179
▁préparer	-11.518
▁band	-11.5181
▁button	-11.5181
▁dort	-11.5182
▁text	-11.5184
▁stolen	-11.5191
ged	-11.5193
▁disent	-11.5198
▁duty	-11.5201
▁Has	-11.5201
▁mille	-11.5203
light	-11.5204
▁raise	-11.5207
▁poche	-11.5214
amb	-11.5218
rions	-11.5226
▁#18909	-11.5237
▁#1307	-11.5258
▁#2539	-11.5271
779	-11.5276
▁haute	-11.5279
▁paint	-11.5279
admet	-11.5285
▁#1333	-11.5286
▁#8114	-11.5287
▁#3152	-11.5292
▁#3199	-11.5292
▁#3923	-11.5292
▁#2957	-11.5292
▁garage	-11.5292
▁studied	-11.5292
▁Essaie	-11.5292
▁eggs	-11.5292
▁feed	-11.5292
▁forgive	-11.5292
▁#79829	-11.5292
▁apples	-11.5293
▁portait	-11.5294
▁#64560	-11.5306
▁manquer	-11.5307
▁pont	-11.5311
till	-11.5315
▁#1398	-11.5334
▁vendre	-11.534
▁viendrai	-11.5347
▁mentir	-11.5349
hen	-11.5355
▁feelings	-11.5367
lui	-11.5381
▁rac	-11.5382
sak	-11.5385
▁#22886	-11.5385
▁prove	-11.5402
▁#1407	-11.5408
▁#2934	-11.5408
explosion	-11.5408
▁#1814	-11.5408
▁ashamed	-11.5408
▁commis	-11.5408
▁musée	-11.5408
▁pause	-11.5409
▁frais	-11.541
▁conseilla	-11.5412
▁hang	-11.5416
▁voie	-11.5416
▁polite	-11.542
▁#1357	-11.5441
▁#1372	-11.5454
▁#4530	-11.5455
▁#37306	-11.5456
▁dég	-11.5469
cked	-11.5472
▁#24167	-11.5487
▁puissi	-11.5487
186	-11.55
pje	-11.5514
▁return	-11.5518
▁power	-11.5525
▁#3419	-11.5525
▁#1294	-11.5525
▁#1819	-11.5525
▁#3096	-11.5525
▁#3251	-11.5525
▁#524	-11.5525
▁réellement	-11.5525
▁taught	-11.5525
▁silence	-11.5526
▁membre	-11.5526
▁cool	-11.5526
▁#74489	-11.5526
▁crayon	-11.5526
▁#623	-11.553
689	-11.5532
▁somme	-11.5533
▁#77858	-11.5535
576	-11.5542
▁ordered	-11.5543
909	-11.5546
▁#69359	-11.5552
▁#18862	-11.5553
▁taller	-11.5553
▁Al	-11.5564
▁plain	-11.5569
▁Mak	-11.5598
797	-11.5599
▁#19702	-11.5601
619	-11.5606
▁#742	-11.561
▁#2490	-11.5625
hap	-11.5629
▁debout	-11.5638
454	-11.5639
▁crowd	-11.5645
▁#2510	-11.5645
▁#2561	-11.5645
▁#523	-11.5645
▁#6810	-11.5645
▁#6822	-11.5645
▁Aujourd	-11.5645
▁cigarette	-11.5645
▁cinéma	-11.5645
▁habituellement	-11.5645
▁impliqué	-11.5645
▁kitchen	-11.5645
▁museum	-11.5645
▁sugar	-11.5645
▁sweet	-11.5645
▁corps	-11.5645
▁connaissance	-11.5645
▁pencil	-11.5645
▁canapé	-11.5645
▁blood	-11.5645
Chri	-11.5645
▁stone	-11.5646
▁sérieusement	-11.5646
▁detail	-11.5647
▁trees	-11.5647
nique	-11.5651
▁warned	-11.5651
cookies	-11.5653
▁#60831	-11.5654
entrée	-11.5656
▁#66374	-11.5671
▁courses	-11.5671
▁#46817	-11.5675
▁sauf	-11.5675
▁#22915	-11.5687
▁#53895	-11.5698
▁#23774	-11.5708
▁pot	-11.571
▁sec	-11.5718
▁meant	-11.5722
▁#19507	-11.5734
▁months	-11.5749
▁slow	-11.5762
▁#3140	-11.5765
▁bridge	-11.5765
▁chaleur	-11.5765
▁dépêch	-11.5765
▁extreme	-11.5765
▁gouvernement	-11.5765
▁politique	-11.5765
▁popular	-11.5765
▁président	-11.5765
excuser	-11.5765
▁embrassé	-11.5765
▁preuve	-11.5765
▁stick	-11.5765
▁lentement	-11.5765
▁invitation	-11.5765
▁murder	-11.5765
▁arrested	-11.5768
▁juge	-11.577
▁#63679	-11.5773
▁fortune	-11.5774
▁#73529	-11.5777
▁saved	-11.5784
▁#48417	-11.5786
▁#69369	-11.5793
▁#53774	-11.5796
utus	-11.5803
vl	-11.5816
▁wash	-11.5819
▁#24974	-11.5819
elf	-11.5825
▁inform	-11.5825
▁tickets	-11.5841
▁#1325	-11.5858
▁#1279	-11.5885
▁#3229	-11.5887
▁déménag	-11.5887
▁#18427	-11.5887
▁#2888	-11.5887
▁#3170	-11.5887
▁#3494	-11.5887
▁#763	-11.5887
▁Canadian	-11.5887
▁Jackson	-11.5887
▁explanation	-11.5887
▁extrême	-11.5887
▁particular	-11.5887
▁produire	-11.5887
▁wedding	-11.5887
▁écouté	-11.5887
▁woke	-11.5887
▁tradui	-11.5887
▁morceau	-11.5887
▁client	-11.5887
▁#79710	-11.5887
▁rude	-11.5887
▁awake	-11.5887
▁voleur	-11.5888
▁fear	-11.5888
▁#79670	-11.589
▁manager	-11.5893
arrière	-11.5895
▁#77859	-11.5896
▁terminer	-11.59
▁#20139	-11.5901
▁#69267	-11.5901
imeriez	-11.5905
▁#23341	-11.5907
▁#53591	-11.5912
▁sooner	-11.5917
▁#37296	-11.5931
▁prendrai	-11.5942
viennent	-11.5946
534	-11.5948
bor	-11.5949
▁abandon	-11.595
▁San	-11.5951
▁stole	-11.5966
▁#23733	-11.5968
▁escape	-11.5998
ulo	-11.6001
▁base	-11.6004
instituteur	-11.601
mygdale	-11.601
▁#2321	-11.601
▁#2488	-11.601
▁#3418	-11.601
▁#8030	-11.601
▁government	-11.601
connect	-11.601
▁blind	-11.601
▁lonely	-11.601
▁translate	-11.601
▁lycée	-11.601
▁finger	-11.6011
▁joindre	-11.6011
▁corde	-11.6011
▁posé	-11.6013
▁intéressante	-11.6021
▁#65562	-11.6022
▁moyens	-11.6029
▁#62859	-11.6031
913	-11.6039
▁#55793	-11.604
▁laver	-11.604
▁#77711	-11.6041
▁Ré	-11.6045
▁#46540	-11.6048
▁demi	-11.6049
▁rule	-11.6052
▁#45512	-11.6054
▁sleepy	-11.6056
▁#24081	-11.6058
▁#56604	-11.6059
abandonner	-11.6062
Alg	-11.6065
essaye	-11.6065
▁#22267	-11.6076
▁concentr	-11.6077
▁#16548	-11.6078
▁efforts	-11.6078
▁#19336	-11.608
▁sortie	-11.608
▁cheap	-11.6081
▁#22762	-11.6081
▁#23976	-11.6098
▁#1303	-11.6101
▁#1389	-11.6102
▁#22887	-11.6104
équipe	-11.6106
▁Pas	-11.6108
étudier	-11.6125
▁#7465	-11.6127
▁iron	-11.6128
lose	-11.6132
humeur	-11.6135
▁#1285	-11.6135
▁#1404	-11.6135
▁#3222	-11.6135
▁#3662	-11.6135
▁#6845	-11.6135
▁suffer	-11.6135
▁combat	-11.6135
▁obvious	-11.6135
▁promets	-11.6135
▁vôtre	-11.6135
giving	-11.6135
▁parvenu	-11.6136
▁doigt	-11.6136
▁Call	-11.6137
▁parfaitement	-11.6137
▁Most	-11.6137
▁fallait	-11.614
▁player	-11.6144
▁proposal	-11.6145
▁faster	-11.6153
▁learning	-11.6161
ped	-11.6169
▁#13356	-11.6169
▁animal	-11.6173
▁God	-11.6174
ifié	-11.6174
▁#20126	-11.6175
▁mili	-11.6175
▁#35915	-11.6178
▁#1319	-11.6183
▁perte	-11.6201
▁#18956	-11.6204
▁#20361	-11.6205
▁#14521	-11.6206
▁#18910	-11.6209
▁#23981	-11.6219
▁tient	-11.6224
trouv	-11.6234
▁préférée	-11.6241
▁#1289	-11.6262
▁#1810	-11.6262
▁#2835	-11.6262
▁#2928	-11.6262
▁#767	-11.6262
▁Today	-11.6262
▁folle	-11.6262
▁nobody	-11.6262
▁schedule	-11.6262
▁#2712	-11.6262
▁#6823	-11.6262
▁#719	-11.6262
▁disparu	-11.6262
▁history	-11.6262
▁profond	-11.6262
▁stood	-11.6262
▁boring	-11.6263
étage	-11.6266
approche	-11.6271
afin	-11.6272
oubliez	-11.6273
▁#72905	-11.6274
▁#73528	-11.6275
▁#77698	-11.6276
laming	-11.6276
▁destin	-11.6277
assurer	-11.6281
▁allergi	-11.6283
ethod	-11.6291
▁#1015	-11.6295
arrivera	-11.6298
▁disposé	-11.6305
▁#4545	-11.6311
▁#16358	-11.6317
905	-11.6317
occ	-11.6324
475	-11.6329
▁#1355	-11.6347
584	-11.6348
ley	-11.6351
▁#1397	-11.6352
▁heat	-11.6354
▁Hol	-11.6358
épouser	-11.6363
▁visiter	-11.6363
▁arriv	-11.6384
▁#18429	-11.639
▁#2940	-11.639
▁#3001	-11.639
▁#3162	-11.639
▁#3203	-11.639
▁#3228	-11.639
▁convaincre	-11.639
▁private	-11.639
▁received	-11.639
▁bread	-11.639
▁major	-11.639
▁enemy	-11.639
▁fruits	-11.6391
Shado	-11.6391
▁nerveux	-11.6391
▁actuellement	-11.6391
champ	-11.6392
fort	-11.6401
▁acting	-11.6412
▁vase	-11.6412
▁#22475	-11.6417
▁#1362	-11.642
▁cab	-11.6424
▁#4741	-11.6429
▁#730	-11.6443
▁#7561	-11.6447
rop	-11.6455
▁rencontrée	-11.6456
▁#68774	-11.6458
▁#11406	-11.6465
▁#22759	-11.6467
▁Di	-11.6478
▁foi	-11.648
nger	-11.6489
▁mise	-11.6495
▁nine	-11.65
▁fair	-11.6509
▁#3308	-11.6515
▁#24082	-11.6519
▁#6849	-11.652
▁#2765	-11.652
▁marrant	-11.652
▁rempli	-11.652
▁agréable	-11.652
▁suicide	-11.652
▁#78626	-11.6521
▁#13689	-11.6522
▁suddenly	-11.6522
▁boisson	-11.6523
▁regrette	-11.6524
miche	-11.6526
▁#1320	-11.6527
▁soupe	-11.6532
▁#72904	-11.6533
▁considered	-11.6534
▁expecting	-11.6535
▁drop	-11.6537
▁#63241	-11.6539
▁missing	-11.654
▁Tes	-11.654
▁#66310	-11.655
▁#57268	-11.6555
▁#53673	-11.6562
▁#1338	-11.6566
▁#25346	-11.657
▁buying	-11.6576
ckle	-11.6577
▁#25656	-11.6579
▁#22272	-11.658
▁#58009	-11.6592
▁appel	-11.6596
▁#58037	-11.66
▁#58031	-11.6605
▁#23822	-11.6607
▁entra	-11.6608
▁intéressée	-11.6614
wei	-11.6617
▁#6818	-11.6625
▁#795	-11.6631
444	-11.6635
▁#1989	-11.6647
▁exact	-11.6648
403	-11.6651
▁#3183	-11.6652
▁#3327	-11.6652
▁account	-11.6652
▁body	-11.6652
▁#1282	-11.6652
▁#2884	-11.6652
▁October	-11.6652
▁apartment	-11.6652
▁custom	-11.6652
▁fresh	-11.6652
▁préférerais	-11.6652
▁refusé	-11.6652
▁sauvé	-11.6652
▁véritable	-11.6652
▁adult	-11.6652
▁common	-11.6652
▁victim	-11.6652
▁Essayez	-11.6653
▁copie	-11.6654
▁slowly	-11.6655
▁pensait	-11.6655
▁#23895	-11.6658
▁tienne	-11.666
▁Pouvons	-11.6663
▁#63078	-11.6664
▁member	-11.6666
▁changement	-11.6668
▁Vas	-11.6668
▁#54413	-11.667
▁warn	-11.6679
ities	-11.6679
▁pleine	-11.6683
▁#75530	-11.6687
▁#18865	-11.6688
▁truc	-11.669
▁Com	-11.67
▁#22914	-11.6706
▁calling	-11.6707
▁#19389	-11.6714
▁map	-11.6718
anne	-11.672
▁essaya	-11.6727
▁#734	-11.6731
▁#3309	-11.6735
▁continu	-11.6745
▁#1324	-11.675
moto	-11.6755
▁fume	-11.6769
▁profit	-11.6772
▁souri	-11.6782
▁subject	-11.6784
▁mom	-11.6784
▁#2761	-11.6785
▁#2883	-11.6785
▁#3669	-11.6785
▁#6886	-11.6785
appartient	-11.6785
david	-11.6785
▁#2762	-11.6785
▁#5395	-11.6785
▁#664	-11.6785
▁#66686	-11.6785
▁London	-11.6785
▁guilty	-11.6785
▁inquiet	-11.6785
▁patience	-11.6785
▁possibilité	-11.6785
▁silencieux	-11.6785
▁étrangère	-11.6785
▁feet	-11.6785
▁grew	-11.6785
▁extra	-11.6785
▁teeth	-11.6785
▁Thomas	-11.6785
lapin	-11.6786
▁faux	-11.6787
occupe	-11.6787
▁salt	-11.6788
▁pêcher	-11.6789
artin	-11.679
▁verrouill	-11.679
▁flat	-11.679
▁chef	-11.6791
▁tiré	-11.6793
▁seront	-11.6794
▁#8165	-11.6795
▁#63960	-11.6795
▁#70608	-11.6798
▁accepté	-11.6802
▁#23300	-11.6805
iping	-11.6806
▁#58165	-11.6806
▁pourriez	-11.6807
▁#77933	-11.6813
▁helping	-11.6817
issue	-11.6824
oir	-11.6826
han	-11.6827
▁#8472	-11.6829
▁#19119	-11.683
lni	-11.6832
▁#18485	-11.6845
▁hide	-11.6855
▁barbe	-11.6859
neb	-11.6862
▁#58029	-11.6868
▁grandi	-11.6871
▁#35916	-11.6872
▁#19776	-11.6873
▁#1321	-11.6875
ize	-11.6877
▁#22182	-11.6879
594	-11.6888
▁#20409	-11.6907
▁#1277	-11.6913
▁comporte	-11.6918
▁trouva	-11.6918
▁#1807	-11.692
▁#2448	-11.692
▁#2529	-11.692
▁#2662	-11.692
▁#3137	-11.692
▁#2445	-11.692
▁#2887	-11.692
▁#6815	-11.692
▁Londres	-11.692
▁appointment	-11.692
▁church	-11.692
▁ensuite	-11.692
▁mouth	-11.692
▁printemps	-11.692
▁remarqué	-11.692
▁prenez	-11.692
▁amoureuse	-11.692
▁expert	-11.692
▁#78625	-11.6921
▁worst	-11.6921
▁voler	-11.6937
▁wise	-11.6939
923	-11.694
steve	-11.6942
▁native	-11.6946
▁#64741	-11.6951
▁chocolat	-11.6955
well	-11.696
▁#37297	-11.6961
▁watched	-11.6962
▁#53664	-11.6963
▁prévois	-11.6967
▁#36361	-11.6974
▁#16387	-11.6975
▁#68412	-11.6977
▁#13372	-11.698
▁#22289	-11.698
443	-11.6981
▁#20696	-11.6985
▁neighbors	-11.6986
▁visited	-11.6998
▁#19705	-11.7011
lang	-11.7011
▁#20266	-11.7021
▁réfléchi	-11.7035
bec	-11.7044
Mag	-11.7051
▁#7889	-11.7057
▁#2764	-11.7057
▁#3250	-11.7057
▁paraît	-11.7057
église	-11.7057
▁#3157	-11.7057
▁#70502	-11.7057
▁climat	-11.7057
▁conscient	-11.7057
▁pocket	-11.7057
▁straight	-11.7057
▁adopt	-11.7057
wann	-11.7057
▁#13687	-11.7058
▁permettre	-11.7058
▁tears	-11.7058
▁brave	-11.7058
▁savent	-11.7062
dave	-11.7062
▁faisais	-11.707
▁serons	-11.7072
▁puni	-11.7081
▁singer	-11.7087
▁#75442	-11.7089
▁#75494	-11.709
▁#24023	-11.7091
▁boit	-11.7099
▁#55998	-11.7099
▁#37291	-11.71
arrange	-11.7106
work	-11.7108
▁#24159	-11.7116
▁#22271	-11.7117
▁trahi	-11.712
ôt	-11.713
▁#16580	-11.7137
▁#18936	-11.7146
▁trucs	-11.715
Never	-11.7157
▁#1399	-11.7163
▁#1274	-11.7163
▁pressé	-11.717
▁paire	-11.7186
▁#4534	-11.7189
▁#2511	-11.7196
▁#2991	-11.7196
▁#3133	-11.7196
▁#3177	-11.7196
▁#3385	-11.7196
▁#6814	-11.7196
▁Hurry	-11.7196
▁faible	-11.7196
▁protéger	-11.7196
▁soudain	-11.7196
▁Demande	-11.7196
▁policier	-11.7196
▁paix	-11.7196
▁généralement	-11.7197
▁flight	-11.7197
▁memory	-11.72
▁tight	-11.7204
▁locked	-11.7206
▁#13359	-11.7206
▁#65561	-11.7209
▁défi	-11.721
▁#61537	-11.7212
▁stranger	-11.7214
iie	-11.7214
▁cried	-11.7216
▁#4579	-11.7216
▁#46934	-11.7224
▁#75446	-11.7233
▁#6400	-11.7236
▁revi	-11.7238
▁fail	-11.7246
▁cache	-11.726
▁#19612	-11.7269
▁japonaise	-11.7279
▁#35993	-11.7282
▁#1323	-11.7287
▁#23900	-11.7293
▁#9545	-11.7294
▁chocolate	-11.7301
▁#18444	-11.7324
▁notice	-11.7325
▁prendra	-11.7329
▁pleased	-11.7333
éteindre	-11.7337
▁#1517	-11.7337
▁#3223	-11.7337
▁apporté	-11.7337
▁suggère	-11.7337
▁peace	-11.7337
▁record	-11.7337
▁Life	-11.7337
▁prévenu	-11.7337
▁joué	-11.7337
▁green	-11.7337
▁Help	-11.7337
▁attack	-11.7337
▁costume	-11.7337
▁#78628	-11.7337
▁bored	-11.7338
▁absolument	-11.7338
▁cloche	-11.7341
▁coupable	-11.7345
▁#20129	-11.7348
▁#22481	-11.735
▁#63853	-11.7356
▁flu	-11.7358
▁standing	-11.7358
▁#56034	-11.7358
▁#67368	-11.7359
▁nouveaux	-11.736
▁entré	-11.736
▁obligée	-11.7365
▁#18204	-11.7373
▁#57527	-11.7378
▁#75213	-11.7385
▁règle	-11.739
▁#24228	-11.74
information	-11.7413
▁#2422	-11.7416
manen	-11.7439
ized	-11.7439
▁#9544	-11.744
▁#2482	-11.7441
▁#2383	-11.7456
▁dorm	-11.7457
▁devenue	-11.7465
▁#620	-11.7469
fully	-11.7473
aurez	-11.7475
▁mode	-11.7478
▁#1802	-11.748
▁#3144	-11.748
▁#3255	-11.748
Gulliver	-11.748
acquisition	-11.748
▁#7281	-11.748
▁chinois	-11.748
▁compagnie	-11.748
▁dirty	-11.748
▁dommage	-11.748
▁rumeur	-11.748
▁volunteer	-11.748
▁prevent	-11.748
▁reviendra	-11.748
▁causé	-11.748
▁bike	-11.748
speed	-11.7481
▁Mets	-11.7481
▁spring	-11.7481
▁élèves	-11.7484
▁#70638	-11.7495
▁mood	-11.7497
issent	-11.7501
▁listened	-11.7504
▁#46922	-11.7506
▁#69370	-11.7511
▁#42353	-11.7516
▁#18868	-11.7518
▁vraie	-11.7527
▁#57063	-11.7531
▁#22917	-11.7536
▁#24273	-11.7536
▁probable	-11.7537
arrête	-11.7542
▁huit	-11.7544
▁#24105	-11.7547
▁fis	-11.7549
étude	-11.755
▁#1366	-11.7553
▁#24106	-11.7557
▁fermée	-11.7565
▁droite	-11.7566
admire	-11.7567
▁#20339	-11.7572
▁#968	-11.7573
▁#3311	-11.7582
▁#13139	-11.7587
▁lors	-11.7587
▁beat	-11.7592
▁#11814	-11.7593
▁#7928	-11.7601
▁flo	-11.7609
▁reach	-11.7622
▁#1436	-11.7625
▁#1500	-11.7625
▁#2327	-11.7625
▁#2491	-11.7625
▁#2929	-11.7625
▁#2974	-11.7625
▁#2977	-11.7625
▁#3153	-11.7625
▁#6828	-11.7625
▁#6840	-11.7625
▁Somebody	-11.7625
▁absolutely	-11.7625
▁candidat	-11.7625
▁gunshot	-11.7625
▁responsible	-11.7625
▁scream	-11.7625
▁soccer	-11.7625
▁thousand	-11.7625
▁excited	-11.7625
▁enfin	-11.7625
▁larmes	-11.7625
▁lazy	-11.7626
▁lourd	-11.7626
▁Chinese	-11.7626
▁correctement	-11.7626
▁#61861	-11.763
▁prise	-11.7632
▁pourrions	-11.7635
▁null	-11.7636
▁following	-11.7637
▁earn	-11.7637
▁#1361	-11.7639
▁#20146	-11.764
▁raconter	-11.7646
▁#45429	-11.7648
gab	-11.765
▁#54189	-11.7659
▁#75445	-11.766
▁fed	-11.7661
395	-11.7665
▁#21115	-11.7667
▁#75296	-11.7681
▁march	-11.7683
▁#36398	-11.7683
▁#23025	-11.7686
▁#24679	-11.7688
▁#68633	-11.7688
▁#20994	-11.7703
▁séjourn	-11.7703
▁bare	-11.7703
▁#13562	-11.7706
▁vain	-11.772
▁#23959	-11.7723
appellerai	-11.7727
avant	-11.773
offre	-11.7731
▁#2322	-11.7734
achète	-11.7737
▁#56619	-11.7743
odi	-11.7746
▁#3374	-11.7749
▁#13301	-11.7751
ofu	-11.7754
attrap	-11.7762
oire	-11.7768
univers	-11.7771
▁#2628	-11.7772
▁#3414	-11.7772
▁#4450	-11.7772
▁#6801	-11.7772
incendie	-11.7772
▁#18459	-11.7772
▁opportunity	-11.7772
▁remettre	-11.7772
▁échoué	-11.7772
▁éveillé	-11.7772
▁résolu	-11.7772
▁dingue	-11.7772
▁stuck	-11.7772
▁refusa	-11.7772
▁peinture	-11.7772
▁menteur	-11.7773
appréci	-11.7774
▁croit	-11.7775
▁sombre	-11.7781
▁single	-11.7782
▁#60670	-11.7784
▁rope	-11.7787
oivent	-11.779
▁#2584	-11.7794
▁viré	-11.7796
andis	-11.7799
▁spoken	-11.78
▁meaning	-11.7802
▁#21593	-11.7807
▁#13563	-11.7808
▁#75531	-11.7808
▁#4578	-11.7823
ctl	-11.7834
▁#22288	-11.7834
▁aiment	-11.7834
▁#24174	-11.7835
▁#21076	-11.784
▁#11144	-11.7842
▁#53719	-11.7842
▁avoid	-11.7856
mka	-11.7863
▁#22888	-11.7878
▁#1071	-11.7881
enseigner	-11.7884
temps	-11.7889
▁Excuse	-11.7916
▁mignon	-11.7918
entraîne	-11.7921
époque	-11.7921
▁#1647	-11.7921
▁#2927	-11.7921
▁#3230	-11.7921
▁#4887	-11.7921
▁#6966	-11.7921
▁dépense	-11.7921
▁familiar	-11.7921
▁particulier	-11.7921
▁retraite	-11.7921
ground	-11.7921
▁Alors	-11.7921
Hikar	-11.7921
▁commande	-11.7921
▁rumor	-11.7921
Salut	-11.7921
assistance	-11.7921
▁devraient	-11.7921
▁caché	-11.7921
▁bomb	-11.7921
▁devait	-11.7922
épaule	-11.7922
ulti	-11.7922
▁panne	-11.7924
▁demandai	-11.7925
▁Read	-11.7925
▁Eh	-11.7925
image	-11.7926
▁soient	-11.7931
▁chanceux	-11.7932
▁insist	-11.7937
osto	-11.7938
▁#70799	-11.7939
▁explained	-11.7944
▁#57241	-11.795
▁suggestion	-11.7953
▁starting	-11.7954
▁cancel	-11.7955
514	-11.796
▁#25048	-11.7964
▁#16642	-11.7967
▁#24650	-11.7971
▁monté	-11.7991
▁#56552	-11.7993
▁#11121	-11.7995
▁#16581	-11.7995
▁#2821	-11.8002
▁#11404	-11.8002
▁#7853	-11.8002
▁#19897	-11.801
▁#19542	-11.803
little	-11.8055
▁#20460	-11.8059
▁#20151	-11.8067
▁president	-11.807
▁nose	-11.8071
urgence	-11.8072
▁#2602	-11.8072
▁#2881	-11.8072
▁#3135	-11.8072
▁Children	-11.8072
▁comfortable	-11.8072
▁entièrement	-11.8072
▁interrupt	-11.8072
▁license	-11.8072
▁légumes	-11.8072
▁salaire	-11.8072
addition	-11.8072
▁#2766	-11.8072
▁décédé	-11.8072
▁annoy	-11.8072
▁départ	-11.8072
eddie	-11.8073
abord	-11.8074
▁wallet	-11.8074
▁pique	-11.8081
▁hiding	-11.8081
▁#71415	-11.8083
▁moon	-11.8084
▁saoul	-11.8087
▁#62103	-11.8093
▁arbres	-11.8094
▁#63808	-11.8094
examine	-11.8096
▁#4774	-11.8101
▁speaker	-11.8102
▁#46787	-11.8103
▁couper	-11.8104
▁#53532	-11.8106
▁#46819	-11.811
▁tourist	-11.8127
▁#45507	-11.8131
▁#24300	-11.8144
▁#11122	-11.8145
▁#11123	-11.8148
▁#16508	-11.815
▁chaude	-11.8159
▁#18387	-11.8171
▁#20260	-11.8174
▁#23972	-11.8186
▁#25447	-11.8196
uvre	-11.8207
▁sain	-11.821
epuis	-11.8213
▁préfér	-11.8213
échec	-11.8219
emploi	-11.822
▁#618	-11.8221
énergie	-11.8226
▁#2580	-11.8226
▁#2582	-11.8226
▁#2720	-11.8226
▁#3130	-11.8226
▁#3138	-11.8226
▁#3227	-11.8226
▁#6829	-11.8226
▁#72671	-11.8226
▁#8008	-11.8226
▁Apporte	-11.8226
▁curious	-11.8226
▁mémoire	-11.8226
▁photograph	-11.8226
▁purpose	-11.8226
▁responsabilité	-11.8226
▁#2586	-11.8226
▁déprimé	-11.8226
▁critique	-11.8226
▁Voilà	-11.8226
▁miracle	-11.8226
▁harm	-11.8226
▁prétend	-11.8226
▁valeur	-11.8226
▁stamp	-11.8227
▁bedroom	-11.8227
▁merci	-11.8227
▁trouvait	-11.8228
yans	-11.8228
▁shocked	-11.823
▁riz	-11.8233
▁loup	-11.8233
▁washing	-11.8234
▁Faisons	-11.8234
▁picked	-11.8238
▁employé	-11.8239
▁#18430	-11.824
▁complaining	-11.8241
▁returned	-11.8242
▁depressed	-11.8243
▁chess	-11.8243
▁growing	-11.8243
▁laissa	-11.8247
▁hasard	-11.825
aiderai	-11.8252
▁See	-11.8255
▁#4542	-11.8257
▁#22477	-11.8257
▁porté	-11.8259
▁#21112	-11.8264
Li	-11.828
▁#14095	-11.8285
▁#64655	-11.8288
▁#13707	-11.8288
▁#24318	-11.8295
▁rentre	-11.8296
▁#7564	-11.8301
▁couvert	-11.8309
▁intend	-11.8314
▁contract	-11.8325
posit	-11.8334
▁#19513	-11.8346
amuser	-11.8357
amuse	-11.8369
▁convince	-11.837
▁#13391	-11.8371
isgr	-11.8371
ified	-11.8374
▁#1297	-11.8383
▁#1503	-11.8383
▁#1642	-11.8383
▁#2601	-11.8383
▁#2742	-11.8383
▁#2879	-11.8383
▁#2886	-11.8383
▁#2944	-11.8383
▁#3007	-11.8383
▁#3160	-11.8383
▁#3257	-11.8383
▁#5865	-11.8383
▁#761	-11.8383
▁science	-11.8383
▁shoot	-11.8383
▁siège	-11.8383
▁#2512	-11.8383
▁#2809	-11.8383
▁choqué	-11.8383
▁génial	-11.8383
▁plaindre	-11.8383
▁psych	-11.8383
▁suivant	-11.8383
serpi	-11.8383
▁position	-11.8383
▁entire	-11.8384
▁#20113	-11.8385
quick	-11.8393
▁#3245	-11.8394
▁certainly	-11.8397
▁accusé	-11.8397
▁healthy	-11.8403
▁#55035	-11.8403
▁oui	-11.8406
▁#57504	-11.8422
▁#47798	-11.8425
▁#46554	-11.8429
▁#47774	-11.843
erreur	-11.844
▁#19613	-11.8462
▁#48648	-11.8464
▁#22038	-11.8471
apporter	-11.8472
▁#20315	-11.8476
▁#20301	-11.8477
▁sembl	-11.8479
éro	-11.8492
gged	-11.8504
▁tombe	-11.8509
enseign	-11.8511
▁#1454	-11.8511
▁construit	-11.8528
▁considér	-11.8531
▁nouvel	-11.8538
▁sérieuse	-11.8539
exercice	-11.8541
▁#1296	-11.8541
▁#2654	-11.8541
▁#4880	-11.8541
▁consult	-11.8541
▁earthquake	-11.8541
▁energy	-11.8541
▁lecture	-11.8541
aîné	-11.8541
▁#18426	-11.8541
▁#2522	-11.8541
▁#2577	-11.8541
▁#3139	-11.8541
▁#3335	-11.8541
▁knock	-11.8541
▁engine	-11.8541
▁poison	-11.8541
trousers	-11.8541
calcul	-11.8541
▁cream	-11.8541
▁clever	-11.8541
▁lift	-11.8543
▁sauver	-11.8548
▁bouche	-11.8549
▁tenté	-11.8552
épi	-11.8553
▁matinée	-11.8555
▁noticed	-11.8556
▁#53245	-11.8563
mong	-11.8563
▁#53291	-11.8564
▁#2497	-11.8584
▁#48569	-11.8586
▁#53697	-11.859
▁#8985	-11.8591
▁imaginé	-11.8602
▁#2915	-11.8602
▁#16385	-11.8605
▁#75214	-11.8607
▁#64630	-11.8616
▁timide	-11.8617
▁joueur	-11.8618
▁express	-11.862
▁laisserai	-11.8624
▁Mange	-11.8629
▁#18957	-11.8629
keir	-11.863
▁#58007	-11.8631
▁brush	-11.8639
▁#20338	-11.8641
▁rencontr	-11.8668
▁#57026	-11.868
▁#36400	-11.8689
▁burn	-11.8696
▁vérifi	-11.8698
▁#36405	-11.8699
alcool	-11.8703
▁#14410	-11.8703
▁#2400	-11.8703
▁#2721	-11.8703
▁#2870	-11.8703
▁#3008	-11.8703
▁#3060	-11.8703
▁#3387	-11.8703
▁#3415	-11.8703
▁China	-11.8703
▁further	-11.8703
▁incapable	-11.8703
▁natural	-11.8703
▁timbre	-11.8703
▁Sometimes	-11.8703
▁humain	-11.8703
▁bigger	-11.8703
▁bagages	-11.8703
▁#78624	-11.8703
▁jouai	-11.8706
▁raté	-11.8706
▁vitesse	-11.8706
▁confused	-11.8708
▁cheer	-11.871
▁reached	-11.8711
▁#70288	-11.8713
▁#46259	-11.8722
▁#23318	-11.8728
▁#48054	-11.873
▁#50635	-11.8736
endroit	-11.8737
aucun	-11.8739
▁#69399	-11.8739
ouvrit	-11.8742
ida	-11.8744
▁foule	-11.8746
▁#45503	-11.8757
▁#75215	-11.8759
▁#24264	-11.876
▁#18431	-11.8762
▁answered	-11.8775
▁effort	-11.8777
▁mistaken	-11.878
▁demand	-11.8781
▁#48691	-11.8781
▁#18500	-11.8785
▁#18501	-11.8791
▁#35987	-11.8798
▁espér	-11.8805
▁#20336	-11.8809
liver	-11.8812
▁#13579	-11.8813
entendi	-11.8814
▁#54525	-11.882
▁#1074	-11.882
Sha	-11.8827
▁répond	-11.8841
▁rendrai	-11.8856
kee	-11.8856
▁jump	-11.8859
issons	-11.886
▁manage	-11.8866
▁#2409	-11.8866
▁#6846	-11.8866
▁wound	-11.8866
Fabi	-11.8867
envoyer	-11.8867
▁#2552	-11.8867
▁#25969	-11.8867
▁#2807	-11.8867
▁#3088	-11.8867
▁#3322	-11.8867
▁#614	-11.8867
▁#6813	-11.8867
▁Osaka	-11.8867
▁commandé	-11.8867
▁compliqué	-11.8867
▁culture	-11.8867
▁dépourvu	-11.8867
▁passport	-11.8867
▁théorie	-11.8867
▁understood	-11.8867
▁vegetables	-11.8867
▁Voyez	-11.8867
▁obey	-11.8867
▁shy	-11.8867
▁instructions	-11.8867
▁countries	-11.8867
▁voudriez	-11.8867
soyons	-11.8867
▁facture	-11.8868
▁débarrasser	-11.8868
▁portable	-11.8869
ambul	-11.8876
▁#63656	-11.8877
▁fan	-11.8878
▁fighting	-11.8878
▁#77857	-11.8879
▁abandonné	-11.8881
▁entered	-11.8881
joy	-11.8885
▁add	-11.8887
▁#56162	-11.8892
▁#3543	-11.8892
▁#24472	-11.8907
▁terme	-11.8908
▁#53755	-11.8911
▁#7074	-11.8916
▁#36001	-11.8916
▁#36711	-11.8919
▁idiote	-11.892
▁plaisante	-11.8933
▁pardon	-11.8963
▁#75248	-11.898
▁#64001	-11.8981
▁#23907	-11.8984
▁limite	-11.8991
exception	-11.9017
▁interest	-11.9025
▁Chine	-11.9032
▁#967	-11.9033
john	-11.9033
▁#14029	-11.9033
▁#3006	-11.9033
▁#33862	-11.9033
▁Attends	-11.9033
▁dirige	-11.9033
▁exhausted	-11.9033
▁navire	-11.9033
▁portefeuille	-11.9033
▁progress	-11.9033
▁trompé	-11.9033
▁passeport	-11.9033
▁basket	-11.9033
▁camion	-11.9033
▁bicyclette	-11.9033
▁delighted	-11.9033
▁dropped	-11.9033
▁silent	-11.9033
▁moque	-11.9034
▁bright	-11.9035
exige	-11.9035
▁vendu	-11.9036
▁poem	-11.9036
▁lady	-11.9036
▁salad	-11.9037
▁huge	-11.9049
▁contribu	-11.9049
▁#35737	-11.9056
▁#63809	-11.9056
▁#21594	-11.9072
▁restée	-11.9079
▁#5657	-11.9084
▁#56269	-11.9089
▁#53696	-11.9094
▁#17242	-11.9094
neige	-11.9097
Keep	-11.9098
handed	-11.9101
▁#15540	-11.9102
▁pose	-11.9104
car	-11.9107
ayons	-11.9115
▁#22083	-11.9121
▁#18945	-11.9124
▁#11405	-11.9126
▁#3303	-11.913
asquet	-11.9133
▁carrie	-11.9141
▁#1017	-11.9163
▁#24477	-11.9175
▁parie	-11.9177
▁#2389	-11.9189
▁collect	-11.9202
▁#18428	-11.9203
▁#2667	-11.9203
▁#3093	-11.9203
▁#3337	-11.9203
▁découvrir	-11.9203
▁faudra	-11.9203
▁instead	-11.9203
▁piscine	-11.9203
▁seldom	-11.9203
capacité	-11.9203
▁#1601	-11.9203
▁#2627	-11.9203
▁graduate	-11.9203
▁gratuit	-11.9203
▁require	-11.9203
▁frappe	-11.9203
▁prisonnier	-11.9203
▁author	-11.9203
▁dessert	-11.9203
▁devais	-11.9203
▁collection	-11.9204
▁poule	-11.9204
▁gold	-11.9205
▁naive	-11.9205
vaisselle	-11.9206
▁#13675	-11.9206
▁marre	-11.9214
▁concerned	-11.9215
▁weak	-11.9217
▁#70678	-11.922
▁ailles	-11.9229
_75)	-11.9236
▁#46538	-11.9256
▁#53645	-11.9256
▁#48753	-11.9259
▁#75216	-11.9264
▁#16523	-11.9293
▁#23700	-11.9298
▁prof	-11.9298
▁fac	-11.9303
▁#22036	-11.9304
▁Du	-11.9313
▁#2505	-11.933
▁gri	-11.9335
▁sage	-11.9356
▁tirer	-11.9368
most	-11.9369
▁général	-11.9374
▁#1519	-11.9375
▁#1602	-11.9375
▁#2520	-11.9375
▁#2792	-11.9375
▁#2904	-11.9375
▁#2931	-11.9375
▁#3070	-11.9375
▁#3120	-11.9375
▁#3166	-11.9375
▁#3241	-11.9375
▁#3410	-11.9375
▁#53964	-11.9375
▁Attendez	-11.9375
▁Saturday	-11.9375
▁Sortez	-11.9375
▁chicken	-11.9375
▁exercise	-11.9375
▁poème	-11.9375
▁pénétr	-11.9375
▁recover	-11.9375
▁refaire	-11.9375
▁reproche	-11.9375
▁volontaire	-11.9375
▁#2611	-11.9375
▁album	-11.9375
▁covered	-11.9375
▁improve	-11.9375
▁éteint	-11.9375
éclair	-11.9375
▁forgotten	-11.9375
▁connaissait	-11.9375
▁attractive	-11.9375
▁confirm	-11.9375
▁assume	-11.9375
▁attentivement	-11.9376
rtro	-11.9376
monnaie	-11.9376
coute	-11.9376
▁brisé	-11.9376
▁#78026	-11.9376
▁sweater	-11.9378
agir	-11.9379
master	-11.9381
▁truck	-11.9383
▁échecs	-11.9383
▁rendit	-11.9384
▁samedi	-11.9385
alec	-11.9388
▁exist	-11.9389
nese	-11.939
bart	-11.9391
▁escaped	-11.9393
▁#70639	-11.9394
▁planté	-11.9394
wma	-11.9396
▁prépar	-11.9401
▁#47756	-11.9404
▁parlent	-11.9404
▁tourne	-11.9407
▁sert	-11.9412
▁#24207	-11.9419
▁#25042	-11.9422
▁#25043	-11.9427
▁#37298	-11.9431
▁#24680	-11.9442
▁admir	-11.9445
▁#56620	-11.9445
▁#17743	-11.9452
▁#24019	-11.9455
▁#22084	-11.9457
▁#78533	-11.9459
▁essay	-11.9462
▁#22086	-11.9468
▁supporte	-11.9469
▁group	-11.947
▁programme	-11.9471
ô	-11.9479
▁#6696	-11.9511
▁Ferme	-11.9545
argument	-11.9551
ouvrage	-11.9551
▁#2619	-11.9551
▁#2975	-11.9551
▁#3058	-11.9551
▁#3324	-11.9551
▁#966	-11.9551
▁States	-11.9551
▁Watch	-11.9551
▁electric	-11.9551
▁habillé	-11.9551
▁incredibl	-11.9551
▁répéter	-11.9551
▁unhappy	-11.9551
▁américain	-11.9551
▁principal	-11.9551
▁strict	-11.9551
allemand	-11.9551
▁Dispose	-11.9551
▁pool	-11.9551
▁university	-11.9551
▁double	-11.9551
Peel	-11.9551
▁spot	-11.9551
▁excité	-11.9551
▁prize	-11.9551
▁modern	-11.9551
▁chacun	-11.9551
▁veste	-11.9553
▁drug	-11.9553
▁Montre	-11.9557
▁#69149	-11.9565
obil	-11.9566
▁#24073	-11.957
▁#57832	-11.957
▁#60003	-11.957
▁#46260	-11.957
▁view	-11.9571
▁épouse	-11.9588
▁2013	-11.9594
▁#48554	-11.9596
▁#48553	-11.9597
▁#68435	-11.9601
▁invitée	-11.9601
▁étudiante	-11.9607
▁#3886	-11.961
▁#64687	-11.9613
▁#56205	-11.9615
▁#21639	-11.9619
▁branch	-11.9633
▁#18908	-11.965
▁#18977	-11.9655
▁casse	-11.9671
▁#4274	-11.9671
▁#25970	-11.9693
gone	-11.9712
▁courte	-11.972
▁twenty	-11.9729
▁#2587	-11.9729
▁#2804	-11.9729
▁#2946	-11.9729
▁#2965	-11.9729
▁#3128	-11.9729
▁#3143	-11.9729
▁#3158	-11.9729
▁#3412	-11.9729
▁#6525	-11.9729
▁#72672	-11.9729
▁circulation	-11.9729
▁embarrassed	-11.9729
▁précipit	-11.9729
▁robbe	-11.9729
alternative	-11.9729
▁supplémentaire	-11.9729
▁headache	-11.9729
▁kidding	-11.9729
▁tough	-11.9729
▁weapon	-11.9729
▁local	-11.9729
▁état	-11.9731
▁Ouvre	-11.9731
▁venez	-11.9731
▁punished	-11.9732
▁mignonne	-11.9733
▁tastes	-11.9742
▁#63635	-11.9743
▁managed	-11.9743
▁#70677	-11.9748
▁hug	-11.9751
▁désire	-11.9754
▁#46789	-11.9755
▁#59434	-11.9755
emporter	-11.9755
▁#67166	-11.9757
erie	-11.976
▁#46961	-11.9761
▁Oh	-11.9767
▁ended	-11.9771
▁cacher	-11.9773
▁#48357	-11.9774
▁limit	-11.9775
▁pousser	-11.9779
▁#46537	-11.9786
▁#13728	-11.9793
▁#24357	-11.9804
▁artist	-11.9822
▁plainte	-11.9847
▁#3302	-11.9864
nok	-11.9868
▁coupé	-11.9877
▁retourne	-11.9878
▁relation	-11.9911
▁attempt	-11.9911
▁disturb	-11.9911
Daniel	-11.9911
hanghai	-11.9911
indiquer	-11.9911
▁#1817	-11.9911
▁#2517	-11.9911
▁#2524	-11.9911
▁#2592	-11.9911
▁#2900	-11.9911
▁#2920	-11.9911
▁#2932	-11.9911
▁#2972	-11.9911
▁#3022	-11.9911
▁#3072	-11.9911
▁#3109	-11.9911
▁#3115	-11.9911
▁#3132	-11.9911
▁#4334	-11.9911
▁#650	-11.9911
▁#6811	-11.9911
▁campagne	-11.9911
▁chère	-11.9911
▁fassiez	-11.9911
▁grandmother	-11.9911
▁middle	-11.9911
▁populaire	-11.9911
▁recommend	-11.9911
▁scientifique	-11.9911
▁thief	-11.9911
Christian	-11.9911
▁Mettez	-11.9911
ghost	-11.9911
Selen	-11.9911
▁poursuiv	-11.9911
▁caisse	-11.9911
hook	-11.9911
▁dishes	-11.9911
▁oiseaux	-11.9911
▁médi	-11.9911
▁consomm	-11.9911
▁#79828	-11.9911
▁scene	-11.9911
▁protest	-11.9912
▁grass	-11.9913
▁tomba	-11.9915
▁gain	-11.9918
▁smarter	-11.9922
odom	-11.9923
▁#70298	-11.9924
▁skier	-11.9925
▁connaissez	-11.9925
▁skiing	-11.9928
proof	-11.9928
▁#57831	-11.9932
▁#77632	-11.9934
▁#46268	-11.9947
▁#46932	-11.9949
▁bague	-11.9954
▁#48720	-11.9975
▁#36521	-11.9977
▁neighbor	-12.0007
▁#26441	-12.0049
dark	-12.006
▁#25471	-12.0087
▁cash	-12.0087
arly	-12.009
Angleterre	-12.0096
échapper	-12.0096
▁#2752	-12.0096
▁#2819	-12.0096
▁#2849	-12.0096
▁#2930	-12.0096
▁#2948	-12.0096
▁#2982	-12.0096
▁#2986	-12.0096
▁#3071	-12.0096
▁#4335	-12.0096
▁#6699	-12.0096
▁Continue	-12.0096
▁absence	-12.0096
▁amazing	-12.0096
▁awesome	-12.0096
▁behavior	-12.0096
▁confectionné	-12.0096
▁gentleman	-12.0096
▁possibility	-12.0096
▁réalité	-12.0096
▁stock	-12.0096
▁violence	-12.0096
▁épuisé	-12.0096
ambition	-12.0096
▁Two	-12.0096
▁losing	-12.0096
▁leader	-12.0096
▁Sors	-12.0097
▁guide	-12.0097
▁allumé	-12.0097
▁spell	-12.0098
▁#13680	-12.01
▁disposons	-12.01
shake	-12.0101
▁policeman	-12.0101
▁Excusez	-12.0102
▁opera	-12.0103
▁attach	-12.0103
▁hung	-12.0104
▁disputer	-12.0107
▁personnelle	-12.0109
▁trick	-12.0113
étique	-12.0114
kita	-12.012
▁toucher	-12.0131
▁#53171	-12.0132
▁#21356	-12.0137
▁#54582	-12.0137
▁trusted	-12.0137
▁#41968	-12.0141
▁amusée	-12.0141
▁#48356	-12.0142
▁#46788	-12.0143
▁race	-12.0157
itter	-12.0197
ando	-12.0203
▁quitte	-12.0211
▁judge	-12.0237
▁#25456	-12.0245
itude	-12.0258
▁#13481	-12.0261
▁désir	-12.0261
▁arriva	-12.0264
▁#2603	-12.0271
▁#1502	-12.0285
▁#2570	-12.0285
▁#2782	-12.0285
▁#2979	-12.0285
▁#3231	-12.0285
▁#4336	-12.0285
exchange	-12.0285
exemple	-12.0285
▁#2405	-12.0285
▁#2496	-12.0285
▁#3037	-12.0285
▁#3047	-12.0285
▁#3184	-12.0285
▁#3253	-12.0285
▁Yesterday	-12.0285
▁dérangé	-12.0285
▁jacket	-12.0285
▁magnifique	-12.0285
▁market	-12.0285
▁organisé	-12.0285
▁recently	-12.0285
▁video	-12.0285
▁goodbye	-12.0285
▁attitude	-12.0285
▁search	-12.0285
▁soldats	-12.0285
▁canadien	-12.0285
▁meurtre	-12.0285
▁prior	-12.0286
▁grimp	-12.0288
▁Montrez	-12.029
▁dessin	-12.0292
▁Vois	-12.0293
▁washed	-12.0297
▁#13163	-12.0301
▁#60692	-12.0301
▁roi	-12.0304
▁#51786	-12.0312
rian	-12.0312
▁#59204	-12.032
▁#54198	-12.0332
entry	-12.0335
▁#47773	-12.034
cong	-12.0342
aurions	-12.035
▁alarm	-12.0364
▁#25476	-12.0394
▁Connais	-12.04
▁#25847	-12.0414
▁#13499	-12.0417
▁#4743	-12.0422
allez	-12.0434
▁tourner	-12.0453
▁hop	-12.0456
▁permet	-12.0465
▁remerci	-12.0472
hings	-12.0473
▁compt	-12.0473
▁conclu	-12.0477
▁#1447	-12.0477
▁#18424	-12.0477
▁#18457	-12.0477
▁#2423	-12.0477
▁#2947	-12.0477
▁#3224	-12.0477
▁advantage	-12.0477
▁contrat	-12.0477
▁ennuyeux	-12.0477
▁ourselves	-12.0477
▁peindre	-12.0477
▁system	-12.0477
▁#14411	-12.0477
▁#2591	-12.0477
▁#2941	-12.0477
▁#2984	-12.0477
▁#3110	-12.0477
▁#3113	-12.0477
▁#3161	-12.0477
▁#3328	-12.0477
▁Accord	-12.0477
▁Appelle	-12.0477
▁célibataire	-12.0477
▁inutile	-12.0477
▁picnic	-12.0477
égard	-12.0477
▁With	-12.0477
▁micro	-12.0477
oblige	-12.0477
▁gars	-12.0477
▁#10130	-12.0477
▁twin	-12.0477
▁pardonner	-12.0478
▁#13287	-12.0478
▁Mother	-12.0478
▁serviette	-12.048
▁anyway	-12.048
▁#45484	-12.0481
Exp	-12.0483
▁verrai	-12.0484
mber	-12.0484
offe	-12.0485
▁mecs	-12.0488
▁debt	-12.0496
▁traveling	-12.0497
▁accepted	-12.0503
adam	-12.0504
▁dentiste	-12.0505
▁mission	-12.0506
▁#3730	-12.0509
▁#70470	-12.0511
▁#21118	-12.0523
▁#18878	-12.0524
▁#18869	-12.0527
▁#13987	-12.055
▁clo	-12.0573
▁décida	-12.0582
▁#6841	-12.059
▁affect	-12.0595
ssait	-12.0627
▁dentist	-12.0645
gui	-12.0662
rava	-12.0666
▁démission	-12.0673
application	-12.0673
intérêt	-12.0673
▁#1509	-12.0673
▁#2635	-12.0673
▁#2737	-12.0673
▁#2839	-12.0673
▁#2889	-12.0673
▁#3000	-12.0673
▁#3019	-12.0673
▁#3043	-12.0673
▁#3075	-12.0673
▁#3155	-12.0673
▁#3232	-12.0673
▁#3254	-12.0673
▁#3380	-12.0673
▁#4602	-12.0673
▁England	-12.0673
▁Write	-12.0673
▁advance	-12.0673
▁available	-12.0673
▁blesser	-12.0673
▁convient	-12.0673
▁disponible	-12.0673
▁merveilleux	-12.0673
▁moving	-12.0673
▁practice	-12.0673
▁réveiller	-12.0673
▁themselves	-12.0673
▁upstairs	-12.0673
▁vidéo	-12.0673
▁third	-12.0673
encourage	-12.0673
▁email	-12.0673
▁clef	-12.0673
▁diary	-12.0673
▁conclusion	-12.0673
▁repeat	-12.0673
▁devient	-12.0673
▁pneu	-12.0674
▁tremblement	-12.0674
▁failure	-12.0674
▁nuts	-12.0676
▁#79602	-12.0678
objectif	-12.0679
▁#68436	-12.0682
▁perfectly	-12.0682
▁awful	-12.0683
▁#61670	-12.0686
étend	-12.0691
▁#69266	-12.0695
▁#46790	-12.0702
▁#13476	-12.0716
▁roul	-12.0721
▁#25479	-12.0728
tomate	-12.0729
▁songé	-12.073
▁#24825	-12.0744
▁#13727	-12.0757
▁#25477	-12.0762
▁complet	-12.0766
▁artiste	-12.077
▁posa	-12.082
aurons	-12.0831
▁retirer	-12.0849
▁#32453	-12.0859
▁pleure	-12.086
améliore	-12.0873
assurance	-12.0873
crivez	-12.0873
▁#1400	-12.0873
▁#1444	-12.0873
▁#2933	-12.0873
▁#2973	-12.0873
▁#2978	-12.0873
▁#3028	-12.0873
▁#3114	-12.0873
▁#3121	-12.0873
▁#3127	-12.0873
▁#3207	-12.0873
▁bonheur	-12.0873
▁copain	-12.0873
▁credit	-12.0873
▁dancing	-12.0873
▁examination	-12.0873
▁fréquen	-12.0873
▁hobby	-12.0873
▁jaloux	-12.0873
▁#3009	-12.0873
▁#3102	-12.0873
▁Dépêche	-12.0873
▁comprenez	-12.0873
▁disagree	-12.0873
▁example	-12.0873
▁soldiers	-12.0873
▁suffisant	-12.0873
éviter	-12.0873
▁Demain	-12.0873
▁feuilles	-12.0873
▁resign	-12.0873
▁copy	-12.0873
▁Time	-12.0873
▁nerveuse	-12.0874
▁disease	-12.0874
▁traiter	-12.0874
▁pleura	-12.0875
▁failli	-12.0875
▁denied	-12.0875
▁loss	-12.0876
▁nurse	-12.0876
▁voit	-12.0876
▁présenté	-12.0877
▁sensible	-12.0877
▁#24024	-12.088
▁hire	-12.0881
▁continué	-12.0882
arrow	-12.0884
▁hired	-12.0888
▁#65455	-12.0891
▁teaching	-12.0892
▁except	-12.0893
▁size	-12.0897
▁#33310	-12.0897
kamil	-12.09
▁Deux	-12.0901
▁#2501	-12.0905
▁#9682	-12.0944
▁#24476	-12.0955
▁détest	-12.0956
▁conseille	-12.0974
▁laid	-12.0976
Desc	-12.0983
▁#3734	-12.1043
▁insult	-12.1061
armée	-12.1067
▁#2484	-12.1077
▁approach	-12.1077
déjeuné	-12.1077
hésite	-12.1077
▁#18458	-12.1077
▁#2575	-12.1077
▁#2707	-12.1077
▁#2727	-12.1077
▁#2780	-12.1077
▁#2949	-12.1077
▁#2966	-12.1077
▁#3049	-12.1077
▁#3067	-12.1077
▁#3087	-12.1077
▁#3174	-12.1077
▁#3920	-12.1077
▁#6729	-12.1077
▁#6809	-12.1077
▁easier	-12.1077
▁expliqué	-12.1077
▁organized	-12.1077
▁pleuré	-12.1077
▁régime	-12.1077
▁similar	-12.1077
▁système	-12.1077
▁reply	-12.1077
▁pareille	-12.1077
▁survenu	-12.1077
▁source	-12.1077
▁sofa	-12.1078
enfance	-12.1078
▁#82376	-12.1078
Open	-12.1078
▁Celui	-12.1083
▁hall	-12.1083
hrew	-12.1085
Juli	-12.1091
▁lavé	-12.1092
▁#3345	-12.1092
▁garé	-12.1093
▁#78492	-12.1094
▁salu	-12.1096
▁staring	-12.1097
inclu	-12.1112
pop	-12.1113
▁Moi	-12.1113
▁#25426	-12.1113
abri	-12.1122
▁malin	-12.1122
aujourd	-12.1126
opéra	-12.1146
▁complete	-12.1186
▁confi	-12.1219
▁#3354	-12.1221
▁ressenti	-12.1221
renda	-12.1239
usqu	-12.1257
▁#3214	-12.1264
▁#25453	-12.1271
▁égal	-12.1285
adolescent	-12.1286
négoci	-12.1286
▁#1504	-12.1286
▁#2516	-12.1286
▁#2572	-12.1286
▁#2578	-12.1286
▁#2604	-12.1286
▁#2701	-12.1286
▁#2733	-12.1286
▁#2901	-12.1286
▁#3040	-12.1286
▁#39369	-12.1286
▁#4645	-12.1286
▁Fuji	-12.1286
▁Internet	-12.1286
▁atteint	-12.1286
▁biscuits	-12.1286
▁pleasure	-12.1286
▁prouver	-12.1286
▁punctual	-12.1286
▁unlikely	-12.1286
▁violon	-12.1286
▁voulaient	-12.1286
Valentin	-12.1286
otoba	-12.1286
▁#3937	-12.1286
▁crédit	-12.1286
envisage	-12.1286
amitié	-12.1286
▁parlons	-12.1286
▁cercle	-12.1286
▁gather	-12.1286
▁argue	-12.1286
▁roof	-12.1286
▁démissionner	-12.1286
▁#79674	-12.1286
▁#45485	-12.1287
▁dying	-12.1287
▁clairement	-12.1287
▁Fermez	-12.1292
▁dame	-12.1292
▁gaz	-12.1293
Sitt	-12.1293
▁Good	-12.1294
▁burned	-12.1295
▁reposer	-12.1297
▁ivre	-12.1299
▁sentez	-12.1302
▁souffre	-12.1318
▁#24905	-12.1319
▁#25848	-12.1323
allons	-12.1325
▁#24975	-12.1347
écrit	-12.1353
▁#13135	-12.1358
pérons	-12.1366
mona	-12.1408
abus	-12.1425
▁#13953	-12.1446
▁dispute	-12.1486
▁tenta	-12.1489
emory	-12.1493
▁thin	-12.1495
▁disappear	-12.1498
atteindre	-12.1498
▁#1430	-12.1498
▁#1437	-12.1498
▁#2498	-12.1498
▁#2499	-12.1498
▁#2563	-12.1498
▁#2579	-12.1498
▁#2598	-12.1498
▁#2618	-12.1498
▁#2692	-12.1498
▁#2769	-12.1498
▁#2882	-12.1498
▁#2885	-12.1498
▁#2976	-12.1498
▁#2981	-12.1498
▁#3030	-12.1498
▁#3048	-12.1498
▁#3099	-12.1498
▁#3126	-12.1498
▁#6842	-12.1498
▁#720	-12.1498
▁Voyons	-12.1498
▁annulé	-12.1498
▁complicated	-12.1498
▁croyais	-12.1498
▁postpone	-12.1498
▁réalisé	-12.1498
▁thirsty	-12.1498
▁utilisé	-12.1498
▁#2833	-12.1498
▁méchant	-12.1498
effet	-12.1498
▁sauter	-12.1498
▁behave	-12.1498
▁Day	-12.1498
▁stress	-12.1498
▁profondément	-12.1499
▁Terre	-12.1499
▁craint	-12.1499
▁blanche	-12.1499
▁national	-12.15
▁#82375	-12.15
▁blow	-12.15
▁semblant	-12.1501
▁Tiens	-12.1501
▁useful	-12.1502
▁#45473	-12.1503
▁Shu	-12.1503
▁fairly	-12.1503
▁bouger	-12.1504
▁sors	-12.1504
mega	-12.1505
▁wor	-12.1506
▁chanteur	-12.1513
▁#13424	-12.1519
▁saviez	-12.1521
▁#26461	-12.1527
▁#55244	-12.1531
▁#13164	-12.1532
Jane	-12.1533
▁Japonais	-12.1542
filled	-12.1567
▁#8073	-12.1573
ordinateur	-12.1584
▁#4865	-12.1591
coming	-12.1594
▁manqu	-12.1595
inten	-12.1632
▁devra	-12.1674
rank	-12.1677
▁disappoint	-12.1708
élève	-12.1709
ordinaire	-12.1715
emmener	-12.1716
▁#1511	-12.1716
▁#2518	-12.1716
▁#2554	-12.1716
▁#2600	-12.1716
▁#2616	-12.1716
▁#2617	-12.1716
▁#2631	-12.1716
▁#2719	-12.1716
▁#2805	-12.1716
▁#2811	-12.1716
▁#2845	-12.1716
▁#3156	-12.1716
▁#80649	-12.1716
▁Harvard	-12.1716
▁couramment	-12.1716
▁diplômé	-12.1716
▁downstairs	-12.1716
▁improbable	-12.1716
▁ponctuel	-12.1716
▁poupée	-12.1716
▁#32593	-12.1716
▁criminal	-12.1716
▁toilettes	-12.1716
▁énervé	-12.1716
▁voyez	-12.1716
▁determine	-12.1716
▁détendre	-12.1716
▁stomach	-12.1716
▁miles	-12.1717
espérais	-12.1717
▁assistant	-12.1718
▁Pren	-12.1718
▁Mars	-12.1719
horreur	-12.1719
▁comportement	-12.1719
▁candle	-12.1721
▁Rend	-12.1722
▁jumped	-12.1726
▁considéré	-12.1729
Low	-12.1731
kdo	-12.1734
▁moral	-12.1748
essayez	-12.175
invit	-12.1759
▁#14469	-12.176
tenez	-12.1808
▁Joue	-12.1816
▁#24031	-12.1826
chose	-12.1833
facts	-12.1844
▁#3485	-12.189
▁#24824	-12.1919
infirmière	-12.1938
institutrice	-12.1938
▁#1646	-12.1938
▁#2492	-12.1938
▁#2550	-12.1938
▁#2560	-12.1938
▁#2568	-12.1938
▁#2583	-12.1938
▁#2613	-12.1938
▁#2620	-12.1938
▁#2793	-12.1938
▁#2980	-12.1938
▁#3026	-12.1938
▁#3039	-12.1938
▁#3098	-12.1938
▁#3104	-12.1938
▁#3117	-12.1938
▁#3147	-12.1938
▁#3169	-12.1938
▁#3240	-12.1938
▁#3661	-12.1938
▁#6627	-12.1938
▁#6670	-12.1938
▁#6887	-12.1938
▁achieve	-12.1938
▁aveugle	-12.1938
▁delicious	-12.1938
▁guère	-12.1938
▁insurance	-12.1938
▁neighborhood	-12.1938
▁remarque	-12.1938
▁supermarché	-12.1938
▁supermarket	-12.1938
▁fantôme	-12.1938
▁permit	-12.1938
▁accustom	-12.1938
▁pilot	-12.1938
▁illegal	-12.1938
▁crash	-12.1938
▁above	-12.1938
▁social	-12.1938
essence	-12.1939
ology	-12.1941
▁fever	-12.1941
Blue	-12.1941
▁frightened	-12.1941
▁démarrer	-12.1942
▁#45483	-12.1942
▁baisse	-12.1943
▁jail	-12.1945
▁chanceuse	-12.1945
écris	-12.1953
▁#26033	-12.1954
▁#13168	-12.1957
▁regretter	-12.1977
▁#2597	-12.1983
acceptable	-12.1992
appela	-12.2009
▁enseigne	-12.2031
objection	-12.2047
pression	-12.2076
▁clou	-12.2123
wore	-12.2135
▁#3331	-12.2138
approch	-12.2149
▁voudr	-12.2161
▁discover	-12.2165
étagère	-12.2165
▁#2483	-12.2165
▁#2566	-12.2165
▁#2569	-12.2165
▁#2772	-12.2165
▁#2837	-12.2165
▁#2871	-12.2165
▁#2959	-12.2165
▁#2962	-12.2165
▁#2968	-12.2165
▁#3002	-12.2165
▁#3068	-12.2165
▁#3103	-12.2165
▁#3145	-12.2165
▁#3163	-12.2165
▁#3164	-12.2165
▁#3205	-12.2165
▁#3326	-12.2165
▁#36662	-12.2165
▁#6816	-12.2165
▁Father	-12.2165
▁Trouve	-12.2165
▁airplane	-12.2165
▁childhood	-12.2165
▁emergency	-12.2165
▁grateful	-12.2165
▁mathématiques	-12.2165
▁pantalon	-12.2165
▁responsibility	-12.2165
▁temperature	-12.2165
▁website	-12.2165
▁#2739	-12.2165
▁#2938	-12.2165
▁compromis	-12.2165
▁journaux	-12.2165
▁offended	-12.2165
▁request	-12.2165
▁Chacun	-12.2165
▁space	-12.2165
▁steak	-12.2165
Guil	-12.2165
▁ferions	-12.2166
▁soutien	-12.2166
aimais	-12.2166
▁veniez	-12.2166
▁#75626	-12.2166
▁coincé	-12.2166
▁Rome	-12.2167
rabic	-12.2168
▁traité	-12.2169
usten	-12.217
▁#18463	-12.2173
▁chargé	-12.2174
▁clearly	-12.2176
inquiéter	-12.2177
▁cesser	-12.2179
▁#13449	-12.2184
▁#68185	-12.2211
▁#66967	-12.2217
▁state	-12.2218
inviter	-12.2219
onze	-12.2226
onnaissez	-12.2249
ipped	-12.2252
oos	-12.2257
bril	-12.2263
▁damage	-12.2277
▁#228824	-12.2311
▁Aimerai	-12.2335
▁pêche	-12.239
▁sudden	-12.2395
▁accro	-12.2395
élection	-12.2398
▁#2610	-12.2398
conscious	-12.2398
enquête	-12.2398
▁#2449	-12.2398
▁#2528	-12.2398
▁#2623	-12.2398
▁#2659	-12.2398
▁#27136	-12.2398
▁#2763	-12.2398
▁#2848	-12.2398
▁#2876	-12.2398
▁#2924	-12.2398
▁#2985	-12.2398
▁#2990	-12.2398
▁#2992	-12.2398
▁#2995	-12.2398
▁#3033	-12.2398
▁#3101	-12.2398
▁#3124	-12.2398
▁#3125	-12.2398
▁#3134	-12.2398
▁#3233	-12.2398
▁#4337	-12.2398
▁#4647	-12.2398
▁#68477	-12.2398
▁Friday	-12.2398
▁Parfois	-12.2398
▁betrayed	-12.2398
▁describe	-12.2398
▁dépensé	-12.2398
▁fièvre	-12.2398
▁gaspille	-12.2398
▁malheureux	-12.2398
▁minuit	-12.2398
▁pouviez	-12.2398
▁provide	-12.2398
▁surprend	-12.2398
▁tradition	-12.2398
▁ugly	-12.2398
ennuie	-12.2398
▁Arrive	-12.2398
▁brillant	-12.2398
▁guests	-12.2398
▁hesitate	-12.2398
tapot	-12.2398
▁Jamais	-12.2398
▁shape	-12.2398
potato	-12.2398
▁Tenez	-12.2398
▁winning	-12.2398
odeur	-12.2398
▁lower	-12.2398
▁Compare	-12.2398
▁#75623	-12.2398
▁#79818	-12.2398
▁#79094	-12.2399
▁pressure	-12.2399
▁vendredi	-12.24
▁moteur	-12.2401
▁coffre	-12.2403
▁perdit	-12.2403
▁#45486	-12.2405
▁refer	-12.2408
Jack	-12.2419
daf	-12.2419
▁manuel	-12.2424
ronos	-12.2427
oubli	-12.2428
sentais	-12.2468
▁#25474	-12.2489
intended	-12.2504
accompagner	-12.2504
herbe	-12.2508
▁#183965	-12.2537
▁#3652	-12.255
room	-12.2574
igna	-12.263
emmène	-12.2636
▁#18019	-12.2636
▁#1805	-12.2636
▁#2494	-12.2636
▁#2571	-12.2636
▁#2573	-12.2636
▁#2615	-12.2636
▁#26485	-12.2636
▁#2722	-12.2636
▁#2723	-12.2636
▁#2776	-12.2636
▁#2799	-12.2636
▁#2832	-12.2636
▁#2880	-12.2636
▁#2905	-12.2636
▁#2993	-12.2636
▁#3017	-12.2636
▁#3077	-12.2636
▁#3192	-12.2636
▁#3323	-12.2636
▁#3325	-12.2636
▁#68449	-12.2636
▁#6883	-12.2636
▁Choisis	-12.2636
▁accompan	-12.2636
▁arguing	-12.2636
▁blessure	-12.2636
▁construct	-12.2636
▁efficace	-12.2636
▁everywhere	-12.2636
▁happiness	-12.2636
▁hurried	-12.2636
▁investigat	-12.2636
▁jalouse	-12.2636
▁parvenir	-12.2636
▁récemment	-12.2636
▁aliments	-12.2636
▁promener	-12.2636
▁salary	-12.2636
▁sincère	-12.2636
▁natif	-12.2636
▁gardé	-12.2636
▁saving	-12.2636
▁séparé	-12.2636
▁bathroom	-12.2636
▁réparé	-12.2636
▁accent	-12.2636
▁towel	-12.2636
▁knee	-12.2637
▁beurre	-12.2637
silver	-12.2637
hibou	-12.2638
▁totalement	-12.2638
▁voudrait	-12.2638
▁fence	-12.2639
▁apply	-12.2639
apprécierais	-12.264
▁careless	-12.2642
▁#3215	-12.2644
▁War	-12.2655
▁pin	-12.2662
▁fonctionner	-12.2683
ussitôt	-12.2699
▁doué	-12.2706
▁object	-12.2708
essayai	-12.2733
▁mérit	-12.2775
▁#24435	-12.2789
head	-12.2795
assure	-12.2854
eriz	-12.2871
▁confus	-12.2873
▁horr	-12.2876
original	-12.2877
▁#23231	-12.288
▁#2595	-12.288
▁#3107	-12.288
ambitious	-12.288
immeuble	-12.288
▁#2425	-12.288
▁#2486	-12.288
▁#2519	-12.288
▁#2556	-12.288
▁#2562	-12.288
▁#2588	-12.288
▁#26480	-12.288
▁#2708	-12.288
▁#2744	-12.288
▁#2774	-12.288
▁#2784	-12.288
▁#2810	-12.288
▁#2844	-12.288
▁#2846	-12.288
▁#2960	-12.288
▁#3010	-12.288
▁#3012	-12.288
▁#3027	-12.288
▁#3045	-12.288
▁#3050	-12.288
▁#3119	-12.288
▁#3165	-12.288
▁#3195	-12.288
▁#3209	-12.288
▁#3237	-12.288
▁#3382	-12.288
▁#5394	-12.288
▁#6880	-12.288
▁ability	-12.288
▁apparence	-12.288
▁confess	-12.288
▁courrier	-12.288
▁exciting	-12.288
▁jazz	-12.288
▁occurred	-12.288
▁pouvions	-12.288
▁rompu	-12.288
▁spectacle	-12.288
▁température	-12.288
▁échappé	-12.288
veggie	-12.288
▁Canada	-12.288
▁débat	-12.288
▁engagé	-12.288
▁naked	-12.288
▁classroom	-12.288
▁complex	-12.288
▁foolish	-12.288
▁predict	-12.288
▁#79817	-12.288
▁soft	-12.2882
eddy	-12.2882
▁contest	-12.2882
▁hill	-12.2883
▁model	-12.2885
▁Hand	-12.2887
▁pond	-12.2888
▁hole	-12.289
▁code	-12.2892
▁dare	-12.2892
▁Verr	-12.2895
▁consist	-12.2897
hemis	-12.2966
▁Fro	-12.3004
▁#1843	-12.3016
▁#3395	-12.3024
▁flower	-12.304
près	-12.3042
▁souffr	-12.3091
vul	-12.3091
donna	-12.31
▁affair	-12.3108
▁advise	-12.3117
▁program	-12.3119
▁profession	-12.3127
habille	-12.3128
apprends	-12.313
exprimer	-12.313
▁#25484	-12.313
▁#2669	-12.313
▁#2686	-12.313
▁#2689	-12.313
▁#2983	-12.313
▁#2997	-12.313
▁#2999	-12.313
▁#3066	-12.313
▁#3079	-12.313
▁#3094	-12.313
▁#3097	-12.313
▁#3173	-12.313
▁#3381	-12.313
▁#7713	-12.313
▁curieux	-12.313
▁drowned	-12.313
▁désespéré	-12.313
▁furniture	-12.313
▁midnight	-12.313
▁proximité	-12.313
estomac	-12.313
▁#2622	-12.313
▁#2624	-12.313
▁#2690	-12.313
▁#2767	-12.313
▁#2877	-12.313
▁#2998	-12.313
▁#3118	-12.313
▁#3191	-12.313
▁#3235	-12.313
▁#6824	-12.313
▁Few	-12.313
▁loyer	-12.313
▁spread	-12.313
▁violent	-12.313
▁attirant	-12.313
▁offensé	-12.313
▁greet	-12.313
negotia	-12.313
objet	-12.313
▁tarte	-12.3131
▁souhaiterais	-12.3132
aimons	-12.3132
▁entier	-12.3132
▁nerve	-12.3136
▁#79679	-12.3137
▁chanté	-12.3147
▁confiant	-12.3211
▁#14094	-12.3214
ouverture	-12.3251
▁bête	-12.3278
▁shoe	-12.3297
▁prévoi	-12.3298
arents	-12.3305
emprunt	-12.3384
▁#2621	-12.3386
▁#27131	-12.3386
▁#2779	-12.3386
▁#2994	-12.3386
▁#3220	-12.3386
▁#4641	-12.3386
▁#6662	-12.3386
Language	-12.3386
influence	-12.3386
économie	-12.3386
éducation	-12.3386
▁#1644	-12.3386
▁#18401	-12.3386
▁#2441	-12.3386
▁#2485	-12.3386
▁#2523	-12.3386
▁#2557	-12.3386
▁#2581	-12.3386
▁#2599	-12.3386
▁#26631	-12.3386
▁#2674	-12.3386
▁#2685	-12.3386
▁#2745	-12.3386
▁#2878	-12.3386
▁#2906	-12.3386
▁#2925	-12.3386
▁#2926	-12.3386
▁#2943	-12.3386
▁#3025	-12.3386
▁#3085	-12.3386
▁#3089	-12.3386
▁#3159	-12.3386
▁#36530	-12.3386
▁#53935	-12.3386
▁#6881	-12.3386
▁#6952	-12.3386
▁banane	-12.3386
▁brûlé	-12.3386
▁cooperat	-12.3386
▁dizzy	-12.3386
▁pleasant	-12.3386
▁possession	-12.3386
▁ressens	-12.3386
▁scientist	-12.3386
▁violin	-12.3386
▁énorme	-12.3386
▁souffle	-12.3386
▁raisonnable	-12.3386
▁stairs	-12.3386
▁connaissais	-12.3386
▁rescue	-12.3386
▁Devrai	-12.3386
▁justice	-12.3386
▁corner	-12.3386
▁block	-12.3386
▁criminel	-12.3387
▁frappa	-12.3387
▁dérangerait	-12.3388
▁loan	-12.3388
▁jeans	-12.3388
Lind	-12.3388
▁destination	-12.3389
▁host	-12.339
dessous	-12.339
▁travaillai	-12.3395
nicky	-12.34
▁compl	-12.3457
▁Eat	-12.3482
▁ressent	-12.3486
ommes	-12.3505
▁conten	-12.3517
ranchement	-12.3532
▁invite	-12.3583
▁#4321	-12.3649
acquérir	-12.3649
ascenseur	-12.3649
▁#15019	-12.3649
▁#1514	-12.3649
▁#18402	-12.3649
▁#2442	-12.3649
▁#2574	-12.3649
▁#2593	-12.3649
▁#2609	-12.3649
▁#2650	-12.3649
▁#2710	-12.3649
▁#2743	-12.3649
▁#2777	-12.3649
▁#2785	-12.3649
▁#2797	-12.3649
▁#2800	-12.3649
▁#2812	-12.3649
▁#2840	-12.3649
▁#2907	-12.3649
▁#2988	-12.3649
▁#3011	-12.3649
▁#3016	-12.3649
▁#3074	-12.3649
▁#3111	-12.3649
▁#3236	-12.3649
▁#3249	-12.3649
▁#3687	-12.3649
▁#4170	-12.3649
▁#4886	-12.3649
▁#6532	-12.3649
▁#6698	-12.3649
▁#6803	-12.3649
▁#70572	-12.3649
▁adorable	-12.3649
▁challenge	-12.3649
▁confront	-12.3649
▁education	-12.3649
▁elevator	-12.3649
▁embarrassé	-12.3649
▁fashion	-12.3649
▁increase	-12.3649
▁joking	-12.3649
▁léger	-12.3649
▁quartier	-12.3649
▁recommandé	-12.3649
▁someday	-12.3649
▁tiroir	-12.3649
amène	-12.3649
▁amount	-12.3649
▁banc	-12.3649
échoue	-12.3649
▁distract	-12.3649
▁présence	-12.3649
▁burst	-12.3649
▁Assey	-12.3649
empire	-12.3649
▁repris	-12.3649
▁cheese	-12.365
▁humid	-12.365
▁odd	-12.365
écart	-12.365
▁#74140	-12.365
▁separate	-12.365
▁season	-12.3651
▁désert	-12.3651
▁reconnais	-12.3652
▁safety	-12.3653
▁passage	-12.3657
effectue	-12.3666
▁montra	-12.3676
Tch	-12.3684
bjective	-12.3702
▁identi	-12.3766
▁inquiét	-12.3775
attendrai	-12.3783
berg	-12.3832
auteur	-12.3893
▁prenne	-12.3901
▁focus	-12.392
▁#53936	-12.392
▁Three	-12.392
▁Unfortunately	-12.392
▁anxious	-12.392
▁audience	-12.392
▁brûle	-12.392
▁ceinture	-12.392
▁conférence	-12.392
▁distingue	-12.392
▁evidence	-12.392
▁guéri	-12.392
▁liquide	-12.392
▁méprise	-12.392
▁participer	-12.392
▁progrès	-12.392
▁puzzle	-12.392
▁survécu	-12.392
▁suspicious	-12.392
▁vivons	-12.392
▁yellow	-12.392
▁écrivain	-12.392
▁élégant	-12.392
▁évident	-12.392
▁alentour	-12.392
▁banana	-12.392
▁despise	-12.392
▁deviendra	-12.392
▁héros	-12.392
▁prévoy	-12.392
▁craign	-12.392
▁Parlons	-12.392
▁brosse	-12.392
▁contain	-12.392
▁shelf	-12.392
▁colline	-12.392
▁matière	-12.392
▁reviens	-12.392
▁treize	-12.392
étoiles	-12.392
▁castle	-12.392
▁planned	-12.392
▁settle	-12.392
▁round	-12.392
▁crack	-12.392
▁enseigné	-12.392
▁volume	-12.392
▁jaune	-12.3921
▁beside	-12.3921
▁magic	-12.3936
attention	-12.3965
Marie	-12.3965
▁retourné	-12.4025
ouvri	-12.4133
▁weigh	-12.4148
▁cloth	-12.4193
▁trembl	-12.4197
incident	-12.4197
misunderstanding	-12.4197
▁#25482	-12.4197
▁#26412	-12.4197
▁#36660	-12.4197
▁chaussettes	-12.4197
▁compose	-12.4197
▁cuisinier	-12.4197
▁eventually	-12.4197
▁formulaire	-12.4197
▁locuteur	-12.4197
▁marriage	-12.4197
▁recommande	-12.4197
▁retrouver	-12.4197
▁skinny	-12.4197
▁bullet	-12.4197
▁prénom	-12.4197
▁quantité	-12.4197
▁uniform	-12.4197
▁Croyez	-12.4197
▁wealth	-12.4197
▁paquet	-12.4197
▁détruit	-12.4197
▁retiré	-12.4197
▁general	-12.4197
▁parlait	-12.4197
▁rigol	-12.4197
▁studies	-12.4197
▁grab	-12.4197
▁impoli	-12.4197
▁civil	-12.4198
agoon	-12.4198
▁illness	-12.4198
▁#78170	-12.4198
▁menace	-12.4198
▁poker	-12.4199
▁répondit	-12.42
▁professionnel	-12.4201
▁amené	-12.4201
▁friendship	-12.4202
▁cuis	-12.4204
▁plaisanterie	-12.4211
▁dépl	-12.4218
jury	-12.4225
▁kick	-12.423
appelez	-12.4234
▁Gue	-12.4242
achèterai	-12.4264
evee	-12.4265
▁revienne	-12.4398
▁pousse	-12.4405
▁raconte	-12.4441
▁bouge	-12.4476
abandonne	-12.4481
Allemagne	-12.4483
ajouter	-12.4483
illégal	-12.4483
▁#27134	-12.4483
▁Malheureusement	-12.4483
▁School	-12.4483
▁Speak	-12.4483
▁Water	-12.4483
▁absorb	-12.4483
▁birth	-12.4483
▁confond	-12.4483
▁crème	-12.4483
▁election	-12.4483
▁familier	-12.4483
▁fausse	-12.4483
▁fumée	-12.4483
▁maître	-12.4483
▁mondiale	-12.4483
▁néglige	-12.4483
▁pleuvra	-12.4483
▁rough	-12.4483
▁rôle	-12.4483
▁strength	-12.4483
▁Essayons	-12.4483
▁amélioré	-12.4483
▁drogue	-12.4483
▁false	-12.4483
▁génie	-12.4483
▁raconté	-12.4483
▁reliable	-12.4483
▁blonde	-12.4483
▁sachiez	-12.4483
▁nuages	-12.4483
▁baiser	-12.4483
▁income	-12.4483
▁commettre	-12.4483
▁sauce	-12.4483
▁effective	-12.4484
▁value	-12.4484
chauffe	-12.4485
▁percent	-12.4485
▁emprunté	-12.4485
▁relie	-12.4489
▁spare	-12.4491
▁éloigné	-12.4492
honnêteté	-12.4497
Visi	-12.4571
▁accompli	-12.4575
▁concentrate	-12.462
▁Promet	-12.4636
souris	-12.4672
obéir	-12.4775
▁démarr	-12.4775
accueil	-12.4777
athematics	-12.4777
scription	-12.4777
électricité	-12.4777
▁#184549	-12.4777
▁#23295	-12.4777
▁#27137	-12.4777
▁#32581	-12.4777
▁#36531	-12.4777
▁#53911	-12.4777
▁Smok	-12.4777
▁approve	-12.4777
▁compliment	-12.4777
▁desperate	-12.4777
▁fassions	-12.4777
▁field	-12.4777
▁hammer	-12.4777
▁merveilleuse	-12.4777
▁publié	-12.4777
▁religion	-12.4777
▁respond	-12.4777
▁yourselves	-12.4777
▁Russia	-12.4777
▁batterie	-12.4777
▁bougie	-12.4777
▁passengers	-12.4777
▁physic	-12.4777
▁unusual	-12.4777
▁posséd	-12.4777
▁Grand	-12.4777
ncidence	-12.4777
▁taxes	-12.4777
▁witness	-12.4777
attaque	-12.4777
▁equal	-12.4777
annonce	-12.4777
▁employee	-12.4777
▁détendu	-12.4777
▁#744533	-12.4778
▁rappelez	-12.4778
▁fog	-12.4778
▁serré	-12.4778
▁load	-12.4779
▁theater	-12.478
▁compare	-12.478
▁#45474	-12.4784
▁install	-12.479
▁dollar	-12.4991
voted	-12.5014
▁remport	-12.5036
▁import	-12.5045
▁sweat	-12.5074
hoose	-12.5077
▁differ	-12.5078
annuler	-12.508
honneur	-12.508
océan	-12.508
▁#25489	-12.508
▁#36661	-12.508
▁Cherche	-12.508
▁budget	-12.508
▁coincidence	-12.508
▁commercial	-12.508
▁dépos	-12.508
▁fifteen	-12.508
▁fifty	-12.508
▁méthode	-12.508
▁naissance	-12.508
▁paresseux	-12.508
▁piège	-12.508
▁properly	-12.508
▁quotidiennement	-12.508
▁recevoir	-12.508
▁remarqua	-12.508
▁reservation	-12.508
▁serpent	-12.508
▁teenager	-12.508
▁temple	-12.508
▁vivait	-12.508
▁Appelez	-12.508
▁brown	-12.508
▁captain	-12.508
▁légère	-12.508
▁politics	-12.508
▁error	-12.508
▁Avant	-12.508
▁committed	-12.508
▁firm	-12.508
Expert	-12.508
▁parlais	-12.508
▁interdit	-12.508
▁clouds	-12.508
▁bound	-12.508
▁ailleurs	-12.508
▁fake	-12.508
▁fonctionné	-12.5081
▁dumb	-12.5081
▁dozen	-12.5081
▁powerful	-12.5081
▁allongé	-12.5081
▁lampe	-12.5081
▁commentaire	-12.5082
▁menteuse	-12.5082
estimate	-12.5088
offrir	-12.5095
sentait	-12.5264
▁subi	-12.5375
▁représent	-12.5393
instrument	-12.5393
évanoui	-12.5393
▁#18016	-12.5393
▁#26488	-12.5393
▁#32598	-12.5393
▁#68476	-12.5393
▁bargain	-12.5393
▁capitaine	-12.5393
▁chandail	-12.5393
▁committee	-12.5393
▁confortable	-12.5393
▁constamment	-12.5393
▁débrouillé	-12.5393
▁déterminé	-12.5393
▁détonation	-12.5393
▁fichier	-12.5393
▁genius	-12.5393
▁mouillé	-12.5393
▁pickpocket	-12.5393
▁poussé	-12.5393
▁register	-12.5393
▁remède	-12.5393
▁smiling	-12.5393
▁stories	-12.5393
▁struck	-12.5393
▁épousé	-12.5393
automne	-12.5393
humili	-12.5393
sensitive	-12.5393
▁handsome	-12.5393
▁relative	-12.5393
▁relieved	-12.5393
▁réaliser	-12.5393
▁témoin	-12.5393
▁apparu	-12.5393
▁Price	-12.5393
▁météo	-12.5393
▁régler	-12.5393
▁dislike	-12.5393
▁charmant	-12.5393
▁nôtre	-12.5393
▁réside	-12.5393
▁louer	-12.5393
▁chauffeur	-12.5393
▁rassembl	-12.5393
▁socks	-12.5393
▁requis	-12.5393
▁applie	-12.5393
▁cheated	-12.5394
▁majeur	-12.5395
actrice	-12.5397
▁tiendra	-12.5398
▁#45419	-12.5401
▁étendu	-12.5405
particulièrement	-12.5405
▁noyé	-12.5406
▁construi	-12.5419
▁#78869	-12.5423
▁#13162	-12.543
apporte	-12.5456
▁péri	-12.5464
important	-12.5581
▁échang	-12.56
endance	-12.5672
ollow	-12.5715
applique	-12.5715
endormir	-12.5715
espace	-12.5715
horloge	-12.5715
ocracy	-12.5715
évidence	-12.5715
▁#23296	-12.5715
▁#26484	-12.5715
▁#32597	-12.5715
▁Oublie	-12.5715
▁Tomorrow	-12.5715
▁bottom	-12.5715
▁brouillard	-12.5715
▁camarade	-12.5715
▁chevaux	-12.5715
▁delayed	-12.5715
▁diplomat	-12.5715
▁douzaine	-12.5715
▁défaut	-12.5715
▁engaged	-12.5715
▁entraîné	-12.5715
▁hurler	-12.5715
▁liberté	-12.5715
▁malentendu	-12.5715
▁malheureuse	-12.5715
▁scène	-12.5715
▁unlucky	-12.5715
undown	-12.5715
▁barking	-12.5715
▁eleven	-12.5715
horaire	-12.5715
▁mobile	-12.5715
Nick	-12.5715
▁grossier	-12.5715
▁Alice	-12.5715
▁baked	-12.5715
▁soulagé	-12.5715
▁constant	-12.5716
▁connaissons	-12.5716
▁terms	-12.5716
▁bench	-12.5716
▁claim	-12.5716
▁ramen	-12.5716
▁planted	-12.5716
abeille	-12.5716
aplan	-12.5717
▁virer	-12.5717
▁proverb	-12.5717
▁champion	-12.5718
teins	-12.5719
Igno	-12.572
Italie	-12.5721
▁drap	-12.5722
▁retira	-12.574
0,000	-12.5814
brise	-12.5932
▁prepare	-12.6036
Apoll	-12.6049
ennuyer	-12.6049
▁#33296	-12.6049
▁Africa	-12.6049
▁Chicago	-12.6049
▁Lincoln	-12.6049
▁considère	-12.6049
▁cérémonie	-12.6049
▁déclare	-12.6049
▁déroulé	-12.6049
▁experiment	-12.6049
▁fourchette	-12.6049
▁fûmes	-12.6049
▁password	-12.6049
▁pollution	-12.6049
▁produise	-12.6049
▁stunned	-12.6049
▁threatened	-12.6049
▁uncomfortable	-12.6049
agissait	-12.6049
impôts	-12.6049
inconnu	-12.6049
opportunité	-12.6049
▁#18456	-12.6049
▁#26635	-12.6049
▁déroule	-12.6049
▁snake	-12.6049
▁thick	-12.6049
▁unexpected	-12.6049
▁volonté	-12.6049
▁robot	-12.6049
▁transport	-12.6049
▁pianist	-12.6049
▁addict	-12.6049
▁Tourne	-12.6049
▁tapis	-12.6049
▁shall	-12.6049
▁gueule	-12.6049
▁assuré	-12.6049
▁measure	-12.6049
▁begun	-12.6049
▁métro	-12.6049
▁itself	-12.6049
▁relationship	-12.6049
loyal	-12.6049
▁logique	-12.6049
▁pants	-12.6049
▁#74108	-12.6049
▁Assure	-12.6049
▁Italy	-12.605
▁slippe	-12.605
▁loose	-12.6051
▁ferma	-12.6054
▁sourd	-12.6055
dépendant	-12.6067
active	-12.6097
▁data	-12.6101
▁#229122	-12.6151
▁paniqu	-12.6163
▁#183954	-12.6235
▁#202055	-12.6239
▁#183964	-12.6265
▁choc	-12.6267
▁gym	-12.6347
nybody	-12.635
lpa	-12.637
▁shock	-12.6386
▁build	-12.6388
▁actuelle	-12.6391
▁reprend	-12.6393
observa	-12.6393
▁#25487	-12.6393
▁#27130	-12.6393
▁Frankly	-12.6393
▁Retourne	-12.6393
▁ceremony	-12.6393
▁cherchais	-12.6393
▁conference	-12.6393
▁corriger	-12.6393
▁courriel	-12.6393
▁cuillère	-12.6393
▁departure	-12.6393
▁develop	-12.6393
▁délicieux	-12.6393
▁economy	-12.6393
▁emporté	-12.6393
▁fleuve	-12.6393
▁flexible	-12.6393
▁generous	-12.6393
▁incorrect	-12.6393
▁international	-12.6393
▁intersection	-12.6393
▁nonsense	-12.6393
▁notebook	-12.6393
▁preparing	-12.6393
▁retenir	-12.6393
▁scolded	-12.6393
▁similaire	-12.6393
▁statue	-12.6393
▁symbol	-12.6393
▁thirteen	-12.6393
▁valuable	-12.6393
▁acquaint	-12.6393
▁excitant	-12.6393
▁glance	-12.6393
▁retenu	-12.6393
▁shame	-12.6393
▁swear	-12.6393
Afrique	-12.6394
▁croyez	-12.6394
▁qualité	-12.6394
▁tentative	-12.6394
▁grossière	-12.6394
▁ocean	-12.6394
▁honor	-12.6394
▁passagers	-12.6394
▁demeure	-12.6394
▁degree	-12.6394
▁spoon	-12.6394
▁bitten	-12.6394
▁shave	-12.6394
pargne	-12.6394
observe	-12.6394
▁tourna	-12.6472
▁peign	-12.6511
araly	-12.652
▁injuste	-12.6533
▁timid	-12.6581
aboie	-12.6606
▁opér	-12.6647
took	-12.6693
Will	-12.6695
cinq	-12.6727
▁sauve	-12.6735
▁arrest	-12.6743
▁enfui	-12.6748
Espagne	-12.6751
definitely	-12.6751
éléphant	-12.6751
▁#23293	-12.6751
▁#26482	-12.6751
▁Facebook	-12.6751
▁Promise	-12.6751
▁Think	-12.6751
▁chèque	-12.6751
▁conducteur	-12.6751
▁consacré	-12.6751
▁curtain	-12.6751
▁hamburger	-12.6751
▁luggage	-12.6751
▁meubles	-12.6751
▁miroir	-12.6751
▁mirror	-12.6751
▁mouchoir	-12.6751
▁prévenir	-12.6751
▁ridicule	-12.6751
▁réservation	-12.6751
▁sympathique	-12.6751
▁tattoo	-12.6751
▁traduction	-12.6751
▁téléphoné	-12.6751
▁écoulé	-12.6751
individu	-12.6751
▁#25485	-12.6751
▁#26481	-12.6751
▁Devine	-12.6751
▁affamé	-12.6751
▁announce	-12.6751
▁bluff	-12.6751
▁délicieuse	-12.6751
▁physique	-12.6751
▁Canadien	-12.6751
▁selfie	-12.6751
▁rejeté	-12.6751
▁vertige	-12.6751
▁Listen	-12.6751
▁solaire	-12.6751
▁prenons	-12.6751
▁exprès	-12.6751
▁travaillons	-12.6751
▁marteau	-12.6751
▁skirt	-12.6751
▁atteign	-12.6751
▁réduir	-12.6751
▁centaine	-12.6751
▁explor	-12.6751
▁Porte	-12.6752
▁muscle	-12.6754
existence	-12.6756
tudie	-12.6813
ssied	-12.6994
▁#228823	-12.7006
▁#204439	-12.705
nyone	-12.7082
▁effect	-12.7097
▁Essaye	-12.7116
▁baleine	-12.7121
▁déclara	-12.7121
▁knowledge	-12.7121
▁material	-12.7121
▁millier	-12.7121
▁mètres	-12.7121
▁nettoyé	-12.7121
▁plafond	-12.7121
▁rabbit	-12.7121
▁research	-12.7121
▁ressources	-12.7121
▁récupérer	-12.7121
▁réfrigérateur	-12.7121
alphabet	-12.7121
écrivi	-12.7121
▁#26489	-12.7121
▁#36678	-12.7121
▁secrète	-12.7121
▁supérieur	-12.7121
▁surprenant	-12.7121
▁Papa	-12.7121
▁dumped	-12.7121
▁funeral	-12.7121
abular	-12.7121
qualified	-12.7121
Dark	-12.7121
▁retrouvé	-12.7121
▁concours	-12.7121
enverrai	-12.7121
▁adapt	-12.7121
▁apology	-12.7121
▁distrait	-12.7121
dalism	-12.7121
▁récolte	-12.7121
▁Pardon	-12.7121
▁positive	-12.7121
▁sucré	-12.7121
▁Saint	-12.7121
▁Bonne	-12.7122
▁conserve	-12.7122
▁musicien	-12.7148
▁Seul	-12.7209
prennent	-12.7215
▁décid	-12.7247
arrivai	-12.7251
barb	-12.7279
onnèrent	-12.7342
barr	-12.7345
accomplir	-12.7383
▁comprenne	-12.7438
Q	-12.7468
▁possibl	-12.7472
▁absolu	-12.7503
humour	-12.7506
▁#23251	-12.7506
▁#36671	-12.7506
▁bleeding	-12.7506
▁clôture	-12.7506
▁composition	-12.7506
▁contraire	-12.7506
▁cottage	-12.7506
▁disgusting	-12.7506
▁domicile	-12.7506
▁empêché	-12.7506
▁fluently	-12.7506
▁frustrat	-12.7506
▁garanti	-12.7506
▁gloves	-12.7506
▁jogging	-12.7506
▁mystère	-12.7506
▁pleuvait	-12.7506
▁politician	-12.7506
▁published	-12.7506
▁période	-12.7506
▁ralenti	-12.7506
▁refrigerator	-12.7506
▁signification	-12.7506
▁sophisticated	-12.7506
▁suggéré	-12.7506
▁translation	-12.7506
▁achevé	-12.7506
▁bruyant	-12.7506
▁correspond	-12.7506
▁fiancé	-12.7506
▁financial	-12.7506
▁significant	-12.7506
▁supper	-12.7506
▁Check	-12.7506
▁reserve	-12.7506
▁haircut	-12.7506
▁renversé	-12.7506
▁côte	-12.7506
▁eager	-12.7506
▁sauté	-12.7506
▁connait	-12.7506
▁spoil	-12.7506
obert	-12.7506
▁menacé	-12.7506
▁quasi	-12.7506
Peter	-12.7506
▁aimable	-12.7506
negative	-12.7506
▁accomplish	-12.7506
assassin	-12.7506
monkey	-12.7506
ricci	-12.7506
▁acheta	-12.7506
▁gliss	-12.7506
▁imita	-12.7508
Love	-12.751
enfuir	-12.751
▁étasunien	-12.7515
▁figur	-12.7531
rSh	-12.7546
▁#233012	-12.7566
▁valid	-12.7581
▁#229119	-12.7614
agisse	-12.762
rushed	-12.7664
pressed	-12.7692
explique	-12.7791
nything	-12.7862
▁déjeune	-12.7895
▁alcohol	-12.7896
î	-15.4861
û	-15.4862
ç	-15.4863
ê	-15.4864
è	-15.4865
#	-15.4866
(	-15.4866
